{"pattern": "'(?i:[sdmt]|ll|ve|re)|[^\\r\\n\\p{L}\\p{N}]?+\\p{L}+|\\p{N}{1,3}| ?[^\\s\\p{L}\\p{N}]++[\\r\\n]*|\\s*[\\r\\n]|\\s+(?!\\S)|\\s+", "mergeable_ranks": {"00": 0, "01": 1, "02": 2, "03": 3, "04": 4, "05": 5, "06": 6, "07": 7, "08": 8, "09": 9, "0a": 10, "0b": 11, "0c": 12, "0d": 13, "0e": 14, "0f": 15, "10": 16, "11": 17, "12": 18, "13": 19, "14": 20, "15": 21, "16": 22, "17": 23, "18": 24, "19": 25, "1a": 26, "1b": 27, "1c": 28, "1d": 29, "1e": 30, "1f": 31, "20": 32, "21": 33, "22": 34, "23": 35, "24": 36, "25": 37, "26": 38, "27": 39, "28": 40, "29": 41, "2a": 42, "2b": 43, "2c": 44, "2d": 45, "2e": 46, "2f": 47, "30": 48, "31": 49, "32": 50, "33": 51, "34": 52, "35": 53, "36": 54, "37": 55, "38": 56, "39": 57, "3a": 58, "3b": 59, "3c": 60, "3d": 61, "3e": 62, "3f": 63, "40": 64, "41": 65, "42": 66, "43": 67, "44": 68, "45": 69, "46": 70, "47": 71, "48": 72, "49": 73, "4a": 74, "4b": 75, "4c": 76, "4d": 77, "4e": 78, "4f": 79, "50": 80, "51": 81, "52": 82, "53": 83, "54": 84, "55": 85, "56": 86, "57": 87, "58": 88, "59": 89, "5a": 90, "5b": 91, "5c": 92, "5d": 93, "5e": 94, "5f": 95, "60": 96, "61": 97, "62": 98, "63": 99, "64": 100, "65": 101, "66": 102, "67": 103, "68": 104, "69": 105, "6a": 106, "6b": 107, "6c": 108, "6d": 109, "6e": 110, "6f": 111, "70": 112, "71": 113, "72": 114, "73": 115, "74": 116, "75": 117, "76": 118, "77": 119, "78": 120, "79": 121, "7a": 122, "7b": 123, "7c": 124, "7d": 125, "7e": 126, "7f": 127, "80": 128, "81": 129, "82": 130, "83": 131, "84": 132, "85": 133, "86": 134, "87": 135, "88": 136, "89": 137, "8a": 138, "8b": 139, "8c": 140, "8d": 141, "8e": 142, "8f": 143, "90": 144, "91": 145, "92": 146, "93": 147, "94": 148, "95": 149, "96": 150, "97": 151, "98": 152, "99": 153, "9a": 154, "9b": 155, "9c": 156, "9d": 157, "9e": 158, "9f": 159, "a0": 160, "a1": 161, "a2": 162, "a3": 163, "a4": 164, "a5": 165, "a6": 166, "a7": 167, "a8": 168, "a9": 169, "aa": 170, "ab": 171, "ac": 172, "ad": 173, "ae": 174, "af": 175, "b0": 176, "b1": 177, "b2": 178, "b3": 179, "b4": 180, "b5": 181, "b6": 182, "b7": 183, "b8": 184, "b9": 185, "ba": 186, "bb": 187, "bc": 188, "bd": 189, "be": 190, "bf": 191, "c0": 192, "c1": 193, "c2": 194, "c3": 195, "c4": 196, "c5": 197, "c6": 198, "c7": 199, "c8": 200, "c9": 201, "ca": 202, "cb": 203, "cc": 204, "cd": 205, "ce": 206, "cf": 207, "d0": 208, "d1": 209, "d2": 210, "d3": 211, "d4": 212, "d5": 213, "d6": 214, "d7": 215, "d8": 216, "d9": 217, "da": 218, "db": 219, "dc": 220, "dd": 221, "de": 222, "df": 223, "e0": 224, "e1": 225, "e2": 226, "e3": 227, "e4": 228, "e5": 229, "e6": 230, "e7": 231, "e8": 232, "e9": 233, "ea": 234, "eb": 235, "ec": 236, "ed": 237, "ee": 238, "ef": 239, "f0": 240, "f1": 241, "f2": 242, "f3": 243, "f4": 244, "f5": 245, "f6": 246, "f7": 247, "f8": 248, "f9": 249, "fa": 250, "fb": 251, "fc": 252, "fd": 253, "fe": 254, "ff": 255, "2074": 256, "2061": 257, "696e": 258, "6865": 259, "7265": 260, "6f6e": 261, "6572": 262, "20746865": 263, "2073": 264, "6174": 265, "206f": 266, "2063": 267, "2077": 268, "6e64": 269, "6974": 270, "6573": 271, "6f75": 272, "6f72": 273, "656e": 274, "696e67": 275, "2070": 276, "6973": 277, "2066": 278, "2062": 279, "616e": 280, "616c": 281, "20746f": 282, "6564": 283, "206d": 284, "20616e64": 285, "6172": 286, "20696e": 287, "206f66": 288, "2064": 289, "6963": 290, "6c65": 291, "696f6e": 292, "6f6d": 293, "7374": 294, "2068": 295, "207468": 296, "2079": 297, "656e74": 298, "696c": 299, "20796f75": 300, "6173": 301, "2065": 302, "e280": 303, "726f": 304, "207265": 305, "7665": 306, "206c": 307, "2e0a": 308, "6374": 309, "206e": 310, "6574": 311, "2067": 312, "6c79": 313, "206973": 314, "7365": 315, "20666f72": 316, "2054": 317, "7572": 318, "6964": 319, "206265": 320, "6f74": 321, "7574": 322, "2049": 323, "6365": 324, "206f6e": 325, "6f77": 326, "6179": 327, "696d": 328, "2075": 329, "6174696f6e": 330, "6967": 331, "2053": 332, "6f6c": 333, "7261": 334, "697468": 335, "6368": 336, "766572": 337, "2041": 338, "2074686174": 339, "2043": 340, "207374": 341, "e28099": 342, "2077697468": 343, "6c6c": 344, "616d": 345, "6972": 346, "2070726f": 347, "206974": 348, "657273": 349, "6164": 350, "20616e": 351, "207765": 352, "206173": 353, "20617265": 354, "206865": 355, "206f72": 356, "657373": 357, "6966": 358, "20796f7572": 359, "20636f6e": 360, "696c6c": 361, "756c": 362, "207768": 363, "204d": 364, "6b65": 365, "6765": 366, "2050": 367, "6d656e74": 368, "617465": 369, "617274": 370, "20636f6d": 371, "7070": 372, "206861": 373, "657374": 374, "2042": 375, "6162": 376, "206578": 377, "6f6f": 378, "206465": 379, "686572": 380, "2057": 381, "6f7265": 382, "697479": 383, "2063616e": 384, "746572": 385, "207365": 386, "207375": 387, "697665": 388, "20546865": 389, "6f7274": 390, "7573": 391, "6163": 392, "7175": 393, "696768": 394, "7065": 395, "6c64": 396, "2076": 397, "206e65": 398, "696573": 399, "726f6d": 400, "616e74": 401, "e2809973": 402, "697374": 403, "757265": 404, "2044": 405, "206174": 406, "2048": 407, "2046": 408, "7269": 409, "6e74": 410, "757374": 411, "61696e": 412, "656d": 413, "6f70": 414, "2068617665": 415, "2052": 416, "6f63": 417, "20616c": 418, "7468": 419, "2072": 420, "206368": 421, "207368": 422, "756e": 423, "6f73": 424, "206e6f74": 425, "2066726f6d": 426, "69616c": 427, "2074686973": 428, "756d": 429, "2077696c6c": 430, "616e64": 431, "204c": 432, "2045": 433, "69676874": 434, "20e280": 435, "656c": 436, "206c65": 437, "206279": 438, "726573": 439, "656374": 440, "2047": 441, "6976": 442, "6f6d65": 443, "7564": 444, "706572": 445, "6f7574": 446, "20706c": 447, "6f7572": 448, "20776173": 449, "696465": 450, "617264": 451, "616c6c": 452, "204e": 453, "6f64": 454, "20776f72": 455, "2028": 456, "204f": 457, "206162": 458, "6f7374": 459, "20656e": 460, "7074": 461, "207573": 462, "6b696e67": 463, "20616c6c": 464, "696e65": 465, "696f6e73": 466, "206164": 467, "726564": 468, "206d61": 469, "6965": 470, "726f75": 471, "20636f6d70": 472, "616765": 473, "617374": 474, "61626c65": 475, "6f756c64": 476, "6768": 477, "20646f": 478, "6f66": 479, "74686572": 480, "207468656972": 481, "696365": 482, "616c6c79": 483, "666f72": 484, "546865": 485, "6970": 486, "6363": 487, "206a": 488, "20776865": 489, "20696e74": 490, "697a": 491, "6167": 492, "206f7572": 493, "617265": 494, "20696d": 495, "20686173": 496, "6475": 497, "206b": 498, "656172": 499, "616374": 500, "20636f6e74": 501, "706c": 502, "6666": 503, "616e6365": 504, "206d6f7265": 505, "6b73": 506, "e2809d": 507, "207465": 508, "2074686579": 509, "206f7574": 510, "696e64": 511, "20696e63": 512, "7279": 513, "76657279": 514, "696368": 515, "61746564": 516, "206d65": 517, "2055": 518, "696d65": 519, "6f67": 520, "6f6e65": 521, "616e73": 522, "3230": 523, "697465": 524, "61696c": 525, "666f726d": 526, "6962": 527, "6f7573": 528, "20636c": 529, "736f": 530, "205468": 531, "69676e": 532, "207570": 533, "6174696f6e73": 534, "6f6e67": 535, "20627574": 536, "20617070": 537, "20726573": 538, "61636b": 539, "206d616e": 540, "206665": 541, "6f6f64": 542, "20496e": 543, "696b65": 544, "206f6666": 545, "657265": 546, "2059": 547, "7275": 548, "657276": 549, "20616c736f": 550, "756c74": 551, "617365": 552, "20616e79": 553, "656e6365": 554, "204a": 555, "697265": 556, "6570": 557, "72656174": 558, "2061626f7574": 559, "206f6e65": 560, "20736f": 561, "206f74686572": 562, "616365": 563, "207768696368": 564, "20756e": 565, "6963616c": 566, "20e2809c": 567, "207175": 568, "6961": 569, "20706572": 570, "20696d70": 571, "76656c": 572, "616d65": 573, "2074696d65": 574, "696c65": 575, "726565": 576, "7374617274": 577, "2077686f": 578, "6974696f6e": 579, "6f756e74": 580, "20646973": 581, "736571": 582, "7c3e": 583, "3c7c": 584, "6f66736571": 585, "73746172746f66736571": 586, "20676f": 587, "616368": 588, "2070617274": 589, "207361": 590, "617973": 591, "207461": 592, "207370": 593, "6374696f6e": 594, "2773": 595, "617279": 596, "206c696b65": 597, "206576": 598, "204974": 599, "656e7473": 600, "20616363": 601, "20747261": 602, "6e6f77": 603, "7565": 604, "72657373": 605, "206e656564": 606, "207468656d": 607, "6f7273": 608, "656e64": 609, "617373": 610, "2070726f76": 611, "205374": 612, "626572": 613, "206d79": 614, "61726b": 615, "206e6577": 616, "20676574": 617, "6170": 618, "20737065": 619, "20736f6d65": 620, "696e6773": 621, "6f6f6b": 622, "7562": 623, "204b": 624, "6176": 625, "6c70": 626, "206966": 627, "207768656e": 628, "20656d": 629, "20726563": 630, "3030": 631, "20636f6d6d": 632, "206f766572": 633, "e2809974": 634, "20707265": 635, "207065": 636, "206d6179": 637, "6175": 638, "656e73": 639, "2068656c70": 640, "206172": 641, "6f7365": 642, "20686973": 643, "2079656172": 644, "69636b": 645, "205765": 646, "207468657265": 647, "2056": 648, "6e646572": 649, "6f7665": 650, "696c64": 651, "20776f726b": 652, "207363": 653, "6e65": 654, "616e63": 655, "6c7564": 656, "6c6f77": 657, "20726f": 658, "2054686973": 659, "206167": 660, "61746572": 661, "636b": 662, "75616c": 663, "2077686174": 664, "20646573": 665, "6d656e7473": 666, "206b6e6f77": 667, "20696e746f": 668, "20697473": 669, "20686f77": 670, "6f79": 671, "726f756768": 672, "20616464": 673, "6f7264": 674, "69636573": 675, "2073657276": 676, "206265656e": 677, "204368": 678, "2070726f6475": 679, "20696e64": 680, "6f6e64": 681, "6f62": 682, "207472": 683, "6c6963": 684, "6f706c65": 685, "20757365": 686, "207468616e": 687, "206d616b65": 688, "697368": 689, "696e74": 690, "776e": 691, "20626563": 692, "206578706572": 693, "6f76": 694, "20636f6e73": 695, "20636f6c": 696, "20696e636c7564": 697, "76657273": 698, "6974696573": 699, "69666963": 700, "616e67": 701, "6e696e67": 702, "6f756e64": 703, "6f756768": 704, "696666": 705, "63657373": 706, "696e657373": 707, "616b": 708, "6f6e73": 709, "66756c": 710, "20686572": 711, "207468657365": 712, "2070656f706c65": 713, "696c697479": 714, "20626574": 715, "206a757374": 716, "696f7573": 717, "6174696e67": 718, "70706f7274": 719, "6f7279": 720, "656e63": 721, "20616d": 722, "61746573": 723, "697365": 724, "69727374": 725, "6f776e": 726, "6c69": 727, "206d6f7374": 728, "20616374": 729, "6c656374": 730, "207468726f756768": 731, "74696e67": 732, "72616d": 733, "6c6573": 734, "20776f756c64": 735, "2077657265": 736, "20756e646572": 737, "7573696e657373": 738, "206275": 739, "206e6f": 740, "7465": 741, "6572736f6e": 742, "66746572": 743, "7765": 744, "20e28093": 745, "69656e6365": 746, "207072": 747, "2077656c6c": 748, "20596f75": 749, "206576657279": 750, "666f726d6174696f6e": 751, "20696e76": 752, "2064696666": 753, "6273": 754, "6f6c64": 755, "20726567": 756, "3f0a": 757, "20686164": 758, "20696e746572": 759, "206f6e6c79": 760, "6369616c": 761, "207379": 762, "6c696e65": 763, "20726570": 764, "75726573": 765, "61757365": 766, "68656e": 767, "20656666": 768, "69626c65": 769, "6a656374": 770, "2077616e74": 771, "616c7468": 772, "686564": 773, "206b65": 774, "726f756e64": 775, "206669727374": 776, "616d70": 777, "20626c": 778, "726963": 779, "20617373": 780, "616e6765": 781, "657274": 782, "72616374": 783, "7572696e67": 784, "726f77": 785, "2073756368": 786, "20627573696e657373": 787, "6f7468": 788, "69616e": 789, "7573746f6d": 790, "207068": 791, "666f7265": 792, "756c6172": 793, "20736565": 794, "696e6b": 795, "2072657175": 796, "616c73": 797, "616465": 798, "6f7373": 799, "697473": 800, "20636f": 801, "696665": 802, "20617474": 803, "207477": 804, "70656374": 805, "726974": 806, "20696e666f726d6174696f6e": 807, "616e79": 808, "696577": 809, "75726e": 810, "206d616e79": 811, "6d6572": 812, "205265": 813, "696c79": 814, "20706c6179": 815, "20706572736f6e": 816, "2072656d": 817, "2070726f64756374": 818, "73656c": 819, "2072656c": 820, "20646563": 821, "2073686f756c64": 822, "7473": 823, "7374656d": 824, "20776179": 825, "206163": 826, "686970": 827, "207768657265": 828, "61726b6574": 829, "61736564": 830, "204865": 831, "697373": 832, "2068696768": 833, "6f6c6f67": 834, "676574": 835, "206261636b": 836, "76656c6f70": 837, "3a0a": 838, "657468": 839, "2062657374": 840, "207261": 841, "207269676874": 842, "65726d": 843, "20736865": 844, "20656e74": 845, "20736d": 846, "2070726f766964": 847, "207c": 848, "6177": 849, "206c6f63": 850, "2073747564": 851, "20696e7374": 852, "2066696e": 853, "72656e": 854, "7874": 855, "20696e73": 856, "206775": 857, "206576656e": 858, "206f776e": 859, "6964656e74": 860, "20736563": 861, "7068": 862, "6174697665": 863, "20706f": 864, "2064696666657265": 865, "6174696f6e616c": 866, "69656e74": 867, "6f6e74": 868, "20666c": 869, "617461": 870, "7373": 871, "207472616e73": 872, "5468": 873, "77617264": 874, "204966": 875, "20637573746f6d": 876, "206176": 877, "496e": 878, "2066696e64": 879, "20676f6f64": 880, "207965617273": 881, "2076657279": 882, "20636f756c64": 883, "2064657369676e": 884, "63686e": 885, "616c697479": 886, "6f776572": 887, "2074616b65": 888, "20736574": 889, "207374617274": 890, "67616e": 891, "2073616964": 892, "206166746572": 893, "3139": 894, "206675": 895, "2074776f": 896, "696373": 897, "202d": 898, "20637265": 899, "646179": 900, "756368": 901, "2070726f63657373": 902, "6577": 903, "7973": 904, "726962": 905, "2064697363": 906, "2050726f": 907, "656e6572": 908, "323031": 909, "6566": 910, "6f6d6d": 911, "74656e": 912, "323032": 913, "206c6f6e67": 914, "20616476": 915, "20646576656c6f70": 916, "206772656174": 917, "636573": 918, "207468656e": 919, "2073797374656d": 920, "20686f6d65": 921, "20776f726c64": 922, "20636172": 923, "697a65": 924, "2ee2809d": 925, "686573": 926, "5765": 927, "61726368": 928, "20737570706f7274": 929, "206f7074": 930, "6563": 931, "20766973": 932, "206865616c7468": 933, "206d61726b6574": 934, "2070726f66": 935, "65766572": 936, "205768": 937, "626c65": 938, "206d6564": 939, "7479": 940, "696f6e616c": 941, "20646f6e": 942, "e280997265": 943, "69746564": 944, "20646574": 945, "6f6f6c": 946, "76696e67": 947, "7570": 948, "20737472": 949, "20556e": 950, "206e6f77": 951, "616972": 952, "20636865": 953, "646572": 954, "20646f776e": 955, "2062656361757365": 956, "20696d706f7274": 957, "2073696d": 958, "206d6f64": 959, "76656e": 960, "20726574": 961, "210a": 962, "20636f6d6d756e": 963, "20736b": 964, "206d6f6e": 965, "206272": 966, "6e657373": 967, "2070726f67": 968, "697474": 969, "20646966666572656e74": 970, "6f6c6c6f77": 971, "2063617265": 972, "206c696665": 973, "206265666f7265": 974, "20416e64": 975, "617368": 976, "696574": 977, "20707572": 978, "207369676e": 979, "20737572": 980, "2074686f7365": 981, "2075736564": 982, "756573": 983, "20657874": 984, "6f636b": 985, "2066616d": 986, "20636f6d706c65": 987, "20657870": 988, "636f6d": 989, "61676573": 990, "617468": 991, "206d756368": 992, "20726566": 993, "2068616e64": 994, "75616c6c79": 995, "20646179": 996, "206c656164": 997, "20746563686e": 998, "696e6573": 999, "20646f6573": 1000, "6f6c7574": 1001, "2072656164": 1002, "2070726573": 1003, "656c6c": 1004, "20766172": 1005, "656e7469616c": 1006, "2064617461": 1007, "6e6572": 1008, "69766573": 1009, "696564": 1010, "6f74686572": 1011, "6c6564": 1012, "e2809c": 1013, "206265696e67": 1014, "20617274": 1015, "20656173": 1016, "20617574": 1017, "20657870657269656e6365": 1018, "20636c65": 1019, "207768696c65": 1020, "206f6e6c696e65": 1021, "207465616d": 1022, "206f66666572": 1023, "6f726b": 1024, "206d616465": 1025, "206e756d": 1026, "63657074": 1027, "20466f72": 1028, "3130": 1029, "5768": 1030, "2022": 1031, "20737562": 1032, "20706f6c": 1033, "2026": 1034, "206d696e": 1035, "697a6564": 1036, "616b65": 1037, "20706179": 1038, "6d73": 1039, "6974616c": 1040, "2068657265": 1041, "697175": 1042, "2070726f76696465": 1043, "6c65617365": 1044, "2065616368": 1045, "7374616e64": 1046, "207479": 1047, "206d656d": 1048, "2073686f77": 1049, "20616c6c6f77": 1050, "61726e": 1051, "6b6573": 1052, "636564": 1053, "20656e64": 1054, "696374": 1055, "206c6f6f6b": 1056, "20637572": 1057, "6972656374": 1058, "20666f6c6c6f77": 1059, "20746f6f": 1060, "65726e": 1061, "6c657373": 1062, "6e67": 1063, "2066726565": 1064, "2774": 1065, "207365727669636573": 1066, "2063616c6c": 1067, "7465726e": 1068, "2063686172": 1069, "20616761696e": 1070, "2076616c": 1071, "20617661696c": 1072, "696f": 1073, "61746368": 1074, "73656c66": 1075, "206f70": 1076, "2054686579": 1077, "6567": 1078, "20636f756e74": 1079, "7765656e": 1080, "7073": 1081, "207573696e67": 1082, "20696d706f7274616e74": 1083, "20696e636c7564696e67": 1084, "204173": 1085, "2077656273": 1086, "206d61696e": 1087, "206564": 1088, "6174757265": 1089, "61736f6e": 1090, "206665656c": 1091, "20656666656374": 1092, "20707562": 1093, "696e73": 1094, "63686f6f6c": 1095, "6c696e67": 1096, "20676c": 1097, "20646964": 1098, "6779": 1099, "6e6365": 1100, "20616363657373": 1101, "2066756e": 1102, "20656e73": 1103, "6f757365": 1104, "2061726f756e64": 1105, "206368696c64": 1106, "706c65": 1107, "206265747765656e": 1108, "206b656570": 1109, "20626f7468": 1110, "2068696d": 1111, "20636f6e66": 1112, "6174686572": 1113, "2070726f6772616d": 1114, "6978": 1115, "76696577": 1116, "20416e": 1117, "20617070726f": 1118, "2073657276696365": 1119, "207265616c": 1120, "766564": 1121, "6565": 1122, "20696e66": 1123, "69646572": 1124, "6f6f6b696e67": 1125, "2072657370": 1126, "72616e64": 1127, "206177": 1128, "2d74": 1129, "20636f6d70616e79": 1130, "20636f7572": 1131, "2067656e6572": 1132, "20706c616365": 1133, "20726573756c74": 1134, "54686973": 1135, "706c6f79": 1136, "20706f7373": 1137, "77617973": 1138, "616c65": 1139, "616e6b": 1140, "7269656e64": 1141, "617665": 1142, "2067616d": 1143, "2024": 1144, "6f6c6f6779": 1145, "20666f726d": 1146, "20617661696c61626c65": 1147, "61726d": 1148, "69726564": 1149, "206f7267616e": 1150, "20736f63": 1151, "696d6573": 1152, "20636f7374": 1153, "20646566": 1154, "20696e76657374": 1155, "65726564": 1156, "2e2e": 1157, "292c": 1158, "20707269": 1159, "646974696f6e": 1160, "72656164": 1161, "7572616c": 1162, "20706c616e": 1163, "20736572": 1164, "696e696e67": 1165, "616e7473": 1166, "2ce2809d": 1167, "6572657374": 1168, "20776974686f7574": 1169, "204164": 1170, "205368": 1171, "696e6365": 1172, "6976657273": 1173, "6f727473": 1174, "20746f70": 1175, "2073706563": 1176, "20706172746963": 1177, "657473": 1178, "766573": 1179, "20486f77": 1180, "617a": 1181, "69766964": 1182, "6f6479": 1183, "20626f": 1184, "206c6f74": 1185, "2070726f74": 1186, "6963616c6c79": 1187, "6578": 1188, "7563": 1189, "20776565": 1190, "20736f6d": 1191, "2073616d65": 1192, "206d757374": 1193, "4966": 1194, "206f62": 1195, "206f72646572": 1196, "20636173": 1197, "69656e63": 1198, "6e656374": 1199, "20416c": 1200, "2d62": 1201, "20647572696e67": 1202, "6162696c697479": 1203, "20696e637265": 1204, "2072656365": 1205, "6f6164": 1206, "20697373": 1207, "6c616e64": 1208, "2066616374": 1209, "2062656e": 1210, "726f7373": 1211, "206c697374": 1212, "6f766572": 1213, "206275696c64": 1214, "6674": 1215, "20427574": 1216, "207761746572": 1217, "617273": 1218, "206c6172": 1219, "20636f6e74696e": 1220, "20636f72": 1221, "6767": 1222, "20736166": 1223, "2070726f6a656374": 1224, "6f6e6579": 1225, "20666577": 1226, "72656e74": 1227, "206578706c": 1228, "207374696c6c": 1229, "20666f756e64": 1230, "6363657373": 1231, "2077697468696e": 1232, "2070726f706572": 1233, "2070726f66657373": 1234, "207374617465": 1235, "62657273": 1236, "20706572736f6e616c": 1237, "72756374": 1238, "207374616e64": 1239, "20706174": 1240, "2068617070": 1241, "206c617374": 1242, "20676f696e67": 1243, "20656e67": 1244, "206164646974696f6e": 1245, "7072": 1246, "6976696e67": 1247, "69656e7473": 1248, "6f6674": 1249, "2ee2809d0a": 1250, "2067726f77": 1251, "20696e746572657374": 1252, "207265616c6c79": 1253, "20756e6465727374616e64": 1254, "2077656273697465": 1255, "20706572666f726d": 1256, "696679": 1257, "2070726f6475637473": 1258, "656e74696f6e": 1259, "65727461696e": 1260, "20626574746572": 1261, "207468696e6b": 1262, "20736974": 1263, "70656e64": 1264, "20636f6e63": 1265, "2070726f6d": 1266, "20736c": 1267, "206d69676874": 1268, "2073757265": 1269, "20696d70726f": 1270, "2d66": 1271, "207468696e6773": 1272, "656e7365": 1273, "20706f7374": 1274, "207175657374": 1275, "656e67": 1276, "2d73": 1277, "4974": 1278, "2062656c": 1279, "204e6577": 1280, "20706f696e74": 1281, "206c6576656c": 1282, "6976696475616c": 1283, "7070696e67": 1284, "20736d616c6c": 1285, "205468657265": 1286, "20616c77617973": 1287, "20657374": 1288, "2d63": 1289, "2072657374": 1290, "20506c": 1291, "6167656d656e74": 1292, "204465": 1293, "20696465": 1294, "756e64": 1295, "2064697374": 1296, "206d6f6e7468": 1297, "69737473": 1298, "20636f6d65": 1299, "206d616b696e67": 1300, "6f756e": 1301, "206f70656e": 1302, "696e6564": 1303, "2062656e6566": 1304, "206e756d626572": 1305, "207665": 1306, "20436c": 1307, "206c6f7665": 1308, "2070617373": 1309, "204578": 1310, "6168": 1311, "20646972656374": 1312, "292e": 1313, "2074686f756768": 1314, "2067616d65": 1315, "617574": 1316, "2061626c65": 1317, "20696e64757374": 1318, "7269627574": 1319, "206c6567": 1320, "7468696e67": 1321, "206163636f756e74": 1322, "696572": 1323, "616d706c65": 1324, "61726c79": 1325, "207370656369616c": 1326, "6174656c79": 1327, "e280996c6c": 1328, "20677261": 1329, "2066616d696c79": 1330, "656c73": 1331, "20706f776572": 1332, "2066696c": 1333, "7461696e": 1334, "2072657365": 1335, "206f706572": 1336, "61726564": 1337, "726f6c": 1338, "2063656e74": 1339, "204172": 1340, "20696e646976696475616c": 1341, "206e65656473": 1342, "206372656174": 1343, "206170706c6963": 1344, "726174696f6e": 1345, "6f727468": 1346, "2072756e": 1347, "69726f6e": 1348, "69717565": 1349, "757373": 1350, "2074657374": 1351, "72616c": 1352, "20546f": 1353, "20696e7465726e": 1354, "20496e64": 1355, "2070726f74656374": 1356, "20706f73": 1357, "2070726576": 1358, "706f73": 1359, "290a": 1360, "206c6177": 1361, "20656d706c6f79": 1362, "20706f74": 1363, "207072616374": 1364, "20706f70": 1365, "20436f6d": 1366, "2064617973": 1367, "6973696f6e": 1368, "657468696e67": 1369, "696e6f": 1370, "6d65726963": 1371, "6974746c65": 1372, "2070726f626c65": 1373, "20637265617465": 1374, "20736179": 1375, "2057697468": 1376, "6174657269616c": 1377, "207175616c697479": 1378, "617474": 1379, "697a6174696f6e": 1380, "207468726565": 1381, "20636f6e6e656374": 1382, "69656c64": 1383, "61726473": 1384, "206d6f6e6579": 1385, "323030": 1386, "69657479": 1387, "6974696f6e73": 1388, "6a6f79": 1389, "6f637573": 1390, "206361": 1391, "20657175": 1392, "20747279": 1393, "6973686564": 1394, "616c6b": 1395, "696c6c73": 1396, "20536f": 1397, "636f6e": 1398, "2067697665": 1399, "2073757070": 1400, "206c6574": 1401, "6465": 1402, "2067726f75": 1403, "206163746976": 1404, "20736f6d657468696e67": 1405, "20e28098": 1406, "207363686f6f6c": 1407, "617475726573": 1408, "636f": 1409, "77617265": 1410, "7265656e": 1411, "206f6674656e": 1412, "676572": 1413, "66656374": 1414, "2073756363657373": 1415, "596f75": 1416, "2066756c6c": 1417, "e280997665": 1418, "6974697665": 1419, "207075626c6963": 1420, "20707574": 1421, "20736f6369616c": 1422, "3530": 1423, "207370656369666963": 1424, "3330": 1425, "20726973": 1426, "20616e6f74686572": 1427, "20627265": 1428, "20667269656e64": 1429, "656164": 1430, "206c69676874": 1431, "656d73": 1432, "69657665": 1433, "20666163": 1434, "205468657365": 1435, "207472656174": 1436, "20626967": 1437, "7567": 1438, "6f7465": 1439, "656e746c79": 1440, "2d70": 1441, "206e657874": 1442, "20776f726b696e67": 1443, "746f6e": 1444, "2064656d": 1445, "20636f6e74656e74": 1446, "7669726f6e": 1447, "20416d65726963": 1448, "20636170": 1449, "204265": 1450, "206d656574": 1451, "6f6f74": 1452, "2051": 1453, "20656d61696c": 1454, "2076696465": 1455, "2072657175697265": 1456, "68657265": 1457, "206c657373": 1458, "206d7573": 1459, "206c6974746c65": 1460, "69756d": 1461, "20656c": 1462, "7572697479": 1463, "616e636573": 1464, "69736d": 1465, "6f757273": 1466, "70706f7274756e": 1467, "2077726974": 1468, "206d6174657269616c": 1469, "696f72": 1470, "2063757272656e74": 1471, "20416c6c": 1472, "206c6f6f6b696e67": 1473, "20636c617373": 1474, "6572696e67": 1475, "4552": 1476, "2064656c69": 1477, "20696e636c756465": 1478, "3132": 1479, "20666f6f64": 1480, "303030": 1481, "7265616d": 1482, "6d616e": 1483, "706f72": 1484, "6966696564": 1485, "6976657273697479": 1486, "20636f6e7369646572": 1487, "20426c": 1488, "2068617264": 1489, "207465726d": 1490, "2061726561": 1491, "20646576": 1492, "6974696e67": 1493, "2073697465": 1494, "20657863": 1495, "666f7274": 1496, "6f6f7365": 1497, "205370": 1498, "20776f6d": 1499, "6d65": 1500, "2068756d": 1501, "206368616e6765": 1502, "2062726f": 1503, "6e6579": 1504, "746564": 1505, "57686174": 1506, "697373696f6e": 1507, "20656e6a6f79": 1508, "205363": 1509, "206c6f63616c": 1510, "20656e73757265": 1511, "20536865": 1512, "206f6666657273": 1513, "20666f637573": 1514, "2068656164": 1515, "206d6574": 1516, "206368616e67": 1517, "20636f6e74616374": 1518, "2064657461696c": 1519, "20736f6c7574": 1520, "6c656374696f6e": 1521, "206f70706f7274756e": 1522, "206c6561726e": 1523, "6174666f726d": 1524, "696e616c": 1525, "69636c65": 1526, "204f6e": 1527, "616e6369616c": 1528, "697264": 1529, "20747970": 1530, "61746567": 1531, "20636f6d6d756e697479": 1532, "6178": 1533, "20746f646179": 1534, "2077696e": 1535, "20746f6f6c": 1536, "696e6174696f6e": 1537, "61696e73": 1538, "6f726d": 1539, "6174746572": 1540, "6f72696573": 1541, "2063617365": 1542, "2065617379": 1543, "207c0a": 1544, "6d6564": 1545, "20626568": 1546, "e28094": 1547, "204973": 1548, "2073747564656e7473": 1549, "206472": 1550, "6f726e": 1551, "20636f6d706c657465": 1552, "2073696e6365": 1553, "20706f737369626c65": 1554, "2072656475": 1555, "706f7274": 1556, "7665726e": 1557, "2072657475726e": 1558, "616b696e67": 1559, "20636f6e7374": 1560, "2073616c": 1561, "206372": 1562, "656e6379": 1563, "686f72": 1564, "69736564": 1565, "20776879": 1566, "207265736561726368": 1567, "207265706f7274": 1568, "205a": 1569, "206272616e64": 1570, "776f726b": 1571, "7669726f6e6d656e74": 1572, "207061696e": 1573, "7574757265": 1574, "7474": 1575, "206e65766572": 1576, "6c697368": 1577, "20747269": 1578, "20627579": 1579, "6f696e74": 1580, "207075726368": 1581, "20626f6479": 1582, "206c696d": 1583, "20616972": 1584, "72696573": 1585, "6f7473": 1586, "486f77": 1587, "2076696577": 1588, "206a6f62": 1589, "2070657266656374": 1590, "20736f6674": 1591, "205465": 1592, "20657373": 1593, "206265636f6d65": 1594, "206f6c64": 1595, "205553": 1596, "206b6579": 1597, "6f696365": 1598, "20747275": 1599, "20626173": 1600, "4173": 1601, "205365": 1602, "206368696c6472656e": 1603, "206d6f76": 1604, "20696e647573747279": 1605, "20656c656374": 1606, "206573": 1607, "20596f7572": 1608, "617473": 1609, "726f6e": 1610, "20676f7665726e": 1611, "6172696e67": 1612, "6962696c697479": 1613, "2e636f6d": 1614, "206772": 1615, "20616761696e7374": 1616, "206d756c74": 1617, "206576656e74": 1618, "61746f72": 1619, "20637573746f6d657273": 1620, "20636c65616e": 1621, "696c6c696f6e": 1622, "206469": 1623, "20436f6e": 1624, "20706f74656e7469616c": 1625, "2068697374": 1626, "206261736564": 1627, "6f6369": 1628, "206964656e74": 1629, "20e28094": 1630, "20436f6c": 1631, "20636f6d70616e": 1632, "6973696e67": 1633, "6c656d656e74": 1634, "757465": 1635, "20636865636b": 1636, "206d65616e73": 1637, "204f7572": 1638, "206665617475726573": 1639, "616e6473": 1640, "2d64": 1641, "20706c6174666f726d": 1642, "20746f676574": 1643, "20746f676574686572": 1644, "20616666": 1645, "6f7264696e67": 1646, "2070726573656e74": 1647, "2073746570": 1648, "20486f7765766572": 1649, "616e6e": 1650, "206c61726765": 1651, "757279": 1652, "20717569636b": 1653, "205768656e": 1654, "726170": 1655, "20636f75727365": 1656, "206365727461696e": 1657, "70656369616c": 1658, "206d696e64": 1659, "207669736974": 1660, "6c6c696e67": 1661, "20646576656c6f706d656e74": 1662, "6f6f72": 1663, "206368616c6c": 1664, "206163726f7373": 1665, "2061776179": 1666, "20747265": 1667, "72697374": 1668, "20766172696f7573": 1669, "656d626572": 1670, "6265": 1671, "6574686f64": 1672, "20626f6f6b": 1673, "2061646472657373": 1674, "6976656e": 1675, "2065647563": 1676, "20636f6e74726f6c": 1677, "67696e": 1678, "2d6d": 1679, "207365766572": 1680, "3138": 1681, "20616e6e": 1682, "206e6574": 1683, "61696d": 1684, "2061736b": 1685, "2054686174": 1686, "20726573706f6e73": 1687, "6f6f6b73": 1688, "5374": 1689, "757274686572": 1690, "796c65": 1691, "2066756e64": 1692, "2070686f74": 1693, "6c6574": 1694, "20636f6d6573": 1695, "207061": 1696, "20616e616c": 1697, "20657870656374": 1698, "206c697665": 1699, "313030": 1700, "6f6465": 1701, "20667574757265": 1702, "696c6974696573": 1703, "20526573": 1704, "207365636f6e64": 1705, "207475726e": 1706, "20646967": 1707, "3135": 1708, "6967687473": 1709, "206d616b6573": 1710, "20756e69717565": 1711, "696e63": 1712, "61626c79": 1713, "6f7572636573": 1714, "6f6d6d656e64": 1715, "66616374": 1716, "206d656d62657273": 1717, "206d6f7665": 1718, "20666f6c6c6f77696e67": 1719, "20676f74": 1720, "207765656b": 1721, "757368": 1722, "20647261": 1723, "206e616d65": 1724, "2072616e6765": 1725, "2066696e616e6369616c": 1726, "2063726564": 1727, "7074696f6e": 1728, "206b696e64": 1729, "204f72": 1730, "2067616d6573": 1731, "626f": 1732, "2074696d6573": 1733, "20686176696e67": 1734, "20696d70726f7665": 1735, "20436f6d6d": 1736, "206d6172": 1737, "70706564": 1738, "20656e6572": 1739, "e280a6": 1740, "207365766572616c": 1741, "20616c6f6e67": 1742, "206f7074696f6e73": 1743, "20656e7669726f6e6d656e74": 1744, "20696e766f6c": 1745, "466f72": 1746, "206265617574": 1747, "20756e74": 1748, "7761726473": 1749, "204d616e": 1750, "20647269": 1751, "6172656e74": 1752, "64696e67": 1753, "666572": 1754, "494e": 1755, "206672": 1756, "20686967": 1757, "207369676e69666963": 1758, "2053657276": 1759, "206f6363": 1760, "726574": 1761, "6f757468": 1762, "206f7468657273": 1763, "64756374": 1764, "6b656e": 1765, "6e657273": 1766, "6167696e67": 1767, "6272": 1768, "205068": 1769, "20637573746f6d6572": 1770, "20657870657269656e63": 1771, "6f7474": 1772, "616379": 1773, "207370616365": 1774, "20656666656374697665": 1775, "20726576696577": 1776, "20726f6f6d": 1777, "20706172": 1778, "6c6f6164": 1779, "206e6f6e": 1780, "20746178": 1781, "20636f6d70616e696573": 1782, "20746563686e6f6c6f6779": 1783, "696473": 1784, "20696d70616374": 1785, "2070726f66657373696f6e616c": 1786, "207265636f6d6d656e64": 1787, "636f6e6f6d": 1788, "20736f6c": 1789, "20656e63": 1790, "2073746f7265": 1791, "206578616d706c65": 1792, "206d6574686f64": 1793, "4f4e": 1794, "2070617374": 1795, "656e74616c": 1796, "20706172746963756c6172": 1797, "6c7573": 1798, "20686f757365": 1799, "205375": 1800, "20766964656f": 1801, "207377": 1802, "72617068": 1803, "20636f756e747279": 1804, "2069": 1805, "2072656c6174696f6e73": 1806, "205472": 1807, "20776f726b73": 1808, "61747572616c": 1809, "697073": 1810, "2073696e67": 1811, "6a6f72": 1812, "2043616e": 1813, "726f70": 1814, "73746572": 1815, "207368617265": 1816, "69636174696f6e": 1817, "2074656d": 1818, "20697373756573": 1819, "6c66": 1820, "696674": 1821, "676564": 1822, "73696465": 1823, "2063756c74": 1824, "7265616479": 1825, "6f7065": 1826, "206d616e6167656d656e74": 1827, "2057686174": 1828, "6c65646765": 1829, "69766564": 1830, "5768656e": 1831, "20636f6d706574": 1832, "2067726f7570": 1833, "617065": 1834, "2070726f7669646573": 1835, "61726e696e67": 1836, "20666f7265": 1837, "746865": 1838, "6c6576": 1839, "20616d6f756e74": 1840, "69646573": 1841, "696e61": 1842, "2064616d": 1843, "61626f72": 1844, "75726564": 1845, "207468696e67": 1846, "20617564": 1847, "20656e65726779": 1848, "20647565": 1849, "6d62": 1850, "2064656c": 1851, "2070726976": 1852, "277265": 1853, "2076616c7565": 1854, "206c6f77": 1855, "61636573": 1856, "75726f": 1857, "20417070": 1858, "616666": 1859, "20636f6d62": 1860, "757273": 1861, "4553": 1862, "20706f6c6963": 1863, "206272696e67": 1864, "206d65616e": 1865, "2073686f7274": 1866, "696d617465": 1867, "4154": 1868, "66666963": 1869, "2067657474696e67": 1870, "292e0a": 1871, "207573657273": 1872, "206c61": 1873, "756d70": 1874, "207369676e69666963616e74": 1875, "20686f6c64": 1876, "3131": 1877, "63696e67": 1878, "5468657265": 1879, "696f64": 1880, "2073696465": 1881, "6f68": 1882, "696b": 1883, "20616c7265616479": 1884, "6173696e67": 1885, "61736573": 1886, "20776562": 1887, "7963": 1888, "206465616c": 1889, "6e6f74": 1890, "70617274": 1891, "206d65646961": 1892, "207365637572697479": 1893, "6f72696e67": 1894, "20436f6e74": 1895, "6d696e": 1896, "20636f6d6d6f6e": 1897, "6f676e": 1898, "206e6563657373": 1899, "20726573756c7473": 1900, "2063686f6f7365": 1901, "20756e74696c": 1902, "6f6964": 1903, "2070616765": 1904, "676573": 1905, "63656c6c": 1906, "2076657273": 1907, "20776f7264": 1908, "657479": 1909, "2070687973": 1910, "204672": 1911, "20696e7374616c6c": 1912, "206d616a6f72": 1913, "206579": 1914, "207374726f6e67": 1915, "6e6f76": 1916, "617272": 1917, "20636f766572": 1918, "697a696e67": 1919, "207061636b": 1920, "2074797065": 1921, "2061637475616c6c79": 1922, "69746573": 1923, "7572616e6365": 1924, "20706c65617365": 1925, "206b6e6f776e": 1926, "20656e6f756768": 1927, "20657373656e7469616c": 1928, "546f": 1929, "20646f6e65": 1930, "20706f70756c6172": 1931, "61766f72": 1932, "2073746179": 1933, "204c65": 1934, "206c696e65": 1935, "20496e7374": 1936, "207175657374696f6e73": 1937, "20547261": 1938, "2072656c6174696f6e73686970": 1939, "706c616365": 1940, "2077686574686572": 1941, "20666f7572": 1942, "204174": 1943, "2043656e74": 1944, "20636f6e64": 1945, "6f75726365": 1946, "20706572666f726d616e6365": 1947, "20776f6d656e": 1948, "20476f64": 1949, "2063616d70": 1950, "20726561736f6e": 1951, "20456e": 1952, "206f726967": 1953, "e280996d": 1954, "757365": 1955, "2065766572": 1956, "206a6f7572": 1957, "207269736b": 1958, "657279": 1959, "616e65": 1960, "6166": 1961, "20676f7665726e6d656e74": 1962, "20736561726368": 1963, "20636f6c6c656374": 1964, "726573656e74": 1965, "207072696365": 1966, "2062656e6566697473": 1967, "20617373697374": 1968, "6f6375": 1969, "207265636f7264": 1970, "69726d": 1971, "20616368": 1972, "20686f757273": 1973, "206d6f6d": 1974, "6f6e6573": 1975, "61746963": 1976, "656573": 1977, "20636f75": 1978, "726f6f6d": 1979, "70656369616c6c79": 1980, "2062656c6f77": 1981, "2070726570": 1982, "206865617274": 1983, "206d656e": 1984, "63656e74": 1985, "20646f696e67": 1986, "20636f6e73756d": 1987, "697263": 1988, "2064697363757373": 1989, "756c6174696f6e": 1990, "206f6e6365": 1991, "206f66666963": 1992, "2066617374": 1993, "20617574686f72": 1994, "6f62616c": 1995, "706c79": 1996, "20556e6976657273697479": 1997, "63726962": 1998, "75746573": 1999, "69616e73": 2000, "2063697479": 2001, "20736f667477617265": 2002, "20456e67": 2003, "2068756d616e": 2004, "206566666963": 2005, "67696e67": 2006, "20666172": 2007, "2065636f6e6f6d": 2008, "20436872697374": 2009, "2066757274686572": 2010, "697274": 2011, "20626567696e": 2012, "6169": 2013, "6f726564": 2014, "204d6564": 2015, "206172656173": 2016, "6974686572": 2017, "206e657773": 2018, "20667265": 2019, "20436f6d70": 2020, "20736561736f6e": 2021, "6f7370": 2022, "20706f7274": 2023, "207772": 2024, "776179": 2025, "2073746f7279": 2026, "2073616665": 2027, "2074726176656c": 2028, "207265717569726564": 2029, "6964656e6365": 2030, "416e": 2031, "207374756479": 2032, "2070726f7065727479": 2033, "204e6f": 2034, "2066756e6374696f6e": 2035, "20747261696e696e67": 2036, "616e636564": 2037, "206c656674": 2038, "2075736572": 2039, "4152": 2040, "2073617973": 2041, "20636f6d666f7274": 2042, "6f6772617068": 2043, "206e61747572616c": 2044, "76657274": 2045, "2072656365697665": 2046, "756c6c": 2047, "3134": 2048, "204279": 2049, "206469676974616c": 2050, "3234": 2051, "206d656173": 2052, "206d61726b6574696e67": 2053, "20796f757273656c66": 2054, "2064657369676e6564": 2055, "2d6c": 2056, "20637261": 2057, "616c66": 2058, "206d61696e7461696e": 2059, "20706572696f64": 2060, "206d75736963": 2061, "6f6666": 2062, "656e73697665": 2063, "726f6475": 2064, "2077617973": 2065, "75636b": 2066, "207072657373": 2067, "2073797374656d73": 2068, "20696e666c": 2069, "206669656c64": 2070, "6f736564": 2071, "756e74": 2072, "20757064": 2073, "2063686172616374": 2074, "20446f": 2075, "2063616c6c6564": 2076, "20796f756e67": 2077, "20636c61696d": 2078, "20616d6f6e67": 2079, "20617070656172": 2080, "6f62696c65": 2081, "657272": 2082, "697363": 2083, "637269": 2084, "66756c6c79": 2085, "20616e74": 2086, "2073656c656374": 2087, "6c6579": 2088, "696669636174696f6e": 2089, "20656e68": 2090, "656e6e": 2091, "2072657175657374": 2092, "6c6578": 2093, "20637265646974": 2094, "2065766572797468696e67": 2095, "20646f65736e": 2096, "63686573": 2097, "2e53": 2098, "7777": 2099, "206368616c6c656e67": 2100, "20736b696e": 2101, "4f52": 2102, "7566616374": 2103, "6963756c74": 2104, "6279": 2105, "206b6e6f776c65646765": 2106, "20686f74": 2107, "2063616c": 2108, "696c69": 2109, "206175746f6d": 2110, "2074616b696e67": 2111, "207061727469636970": 2112, "6d6f7374": 2113, "20636c6f7365": 2114, "20646570656e64": 2115, "20636173696e6f": 2116, "20706965": 2117, "20726f6c65": 2118, "6966756c": 2119, "20616765": 2120, "20616c6c6f7773": 2121, "2070726f626c656d": 2122, "20637574": 2123, "69726573": 2124, "20626974": 2125, "3136": 2126, "2073746172746564": 2127, "2070726f7669646564": 2128, "6c6973686564": 2129, "206d6f6e746873": 2130, "617070": 2131, "206275696c64696e67": 2132, "2073696d706c65": 2133, "20416d": 2134, "3235": 2135, "2070726f766964696e67": 2136, "206a6f": 2137, "2063726974": 2138, "206974656d73": 2139, "2073656c66": 2140, "756e65": 2141, "7377": 2142, "6973746572": 2143, "696c74": 2144, "206c6567616c": 2145, "20657370656369616c6c79": 2146, "61676564": 2147, "20576f72": 2148, "72657368": 2149, "636f6d65": 2150, "206365": 2151, "2e22": 2152, "205072": 2153, "63686564": 2154, "204d6172": 2155, "696c6c6564": 2156, "206d657373": 2157, "20696e637265617365": 2158, "20636f6c6c": 2159, "20667269656e6473": 2160, "4f7572": 2161, "666f7264": 2162, "61746f7273": 2163, "20636f6e747269627574": 2164, "7665727365": 2165, "206c65617374": 2166, "6572616c": 2167, "204f6e65": 2168, "206d6f74": 2169, "73656c766573": 2170, "20696e6974": 2171, "20646f6375": 2172, "72696374": 2173, "20636c69656e7473": 2174, "206561726c79": 2175, "2068617070656e": 2176, "2061626f7665": 2177, "676c65": 2178, "206c6f": 2179, "20417373": 2180, "2074616c": 2181, "20696e746567": 2182, "2063617264": 2183, "20646f67": 2184, "6f7773": 2185, "2077696465": 2186, "207375706572": 2187, "206d616368": 2188, "6c73": 2189, "6974746564": 2190, "2066616365": 2191, "706c6179": 2192, "646974696f6e616c": 2193, "657263": 2194, "20686973746f7279": 2195, "696566": 2196, "206c6f67": 2197, "20696e646976696475616c73": 2198, "206578747261": 2199, "20726567617264": 2200, "2073697475": 2201, "20466c": 2202, "414e": 2203, "206e69676874": 2204, "207574": 2205, "6e616d": 2206, "206c6561726e696e67": 2207, "206573746162": 2208, "20736b696c6c73": 2209, "20617070726f616368": 2210, "2077696e64": 2211, "20696e636c75646573": 2212, "20646966666963756c74": 2213, "6f6d6573": 2214, "69706c65": 2215, "696464": 2216, "20666974": 2217, "2067726f777468": 2218, "206d696c": 2219, "20556e69746564": 2220, "20636f6e646974696f6e73": 2221, "697070696e67": 2222, "20746f6f6c73": 2223, "206d696c6c696f6e": 2224, "2061637469766974696573": 2225, "2064657465726d": 2226, "4954": 2227, "207761": 2228, "20636c656172": 2229, "69736573": 2230, "20436f": 2231, "756e6368": 2232, "20736f6d656f6e65": 2233, "63746f72": 2234, "6d6d": 2235, "756564": 2236, "20656e74697265": 2237, "2065766572796f6e65": 2238, "6f6e79": 2239, "20706c6179657273": 2240, "2074726561746d656e74": 2241, "206879": 2242, "206f696c": 2243, "2064657461696c73": 2244, "20616363657074": 2245, "617073": 2246, "204575726f": 2247, "207072696f72": 2248, "204d79": 2249, "20676976656e": 2250, "206469646e": 2251, "204775": 2252, "20796574": 2253, "206c6f7373": 2254, "2073697a65": 2255, "206164646974696f6e616c": 2256, "68657273": 2257, "2066756c": 2258, "3133": 2259, "206d65646963616c": 2260, "726f6c6c": 2261, "20416d65726963616e": 2262, "206576656e7473": 2263, "2073696e676c65": 2264, "206368616e676573": 2265, "20776f6e": 2266, "61696e6564": 2267, "20657870657274": 2268, "206578697374": 2269, "20766568": 2270, "4944": 2271, "206e6563657373617279": 2272, "20736f756e64": 2273, "206173736f6369": 2274, "207a": 2275, "676f": 2276, "20736166657479": 2277, "207265636f676e": 2278, "20746f74": 2279, "20766f6c": 2280, "78696d": 2281, "206f7074696f6e": 2282, "2073696d706c79": 2283, "207468697264": 2284, "696361746564": 2285, "20496e7465726e": 2286, "207265616368": 2287, "205379": 2288, "696c6172": 2289, "2076617269657479": 2290, "20636f6e7472616374": 2291, "616d6573": 2292, "206c696b656c79": 2293, "61626c6573": 2294, "206f70706f7274756e697479": 2295, "207374616666": 2296, "206170706c69636174696f6e": 2297, "20726567756c6172": 2298, "2073747261746567": 2299, "20636f737473": 2300, "2062656175746966756c": 2301, "6172676574": 2302, "20636f6e74696e7565": 2303, "4544": 2304, "74686f756768": 2305, "20686967686572": 2306, "20686f7374": 2307, "20627573696e6573736573": 2308, "206c616e64": 2309, "204e65": 2310, "72656374": 2311, "7261696e": 2312, "206578616d": 2313, "207472757374": 2314, "207175657374696f6e": 2315, "20616666656374": 2316, "2070726f626c656d73": 2317, "2058": 2318, "4368": 2319, "2073656e64": 2320, "206c61746572": 2321, "2077686f6c65": 2322, "6767657374": 2323, "6f78": 2324, "2062656c69657665": 2325, "616e6775": 2326, "6379": 2327, "2063697263": 2328, "20436172": 2329, "2074656c6c": 2330, "6f757261": 2331, "206e6565646564": 2332, "207370656e64": 2333, "20526570": 2334, "696272": 2335, "6c74": 2336, "6c6572": 2337, "20726570726573656e74": 2338, "207075726368617365": 2339, "206574": 2340, "2063686f696365": 2341, "2074686f75676874": 2342, "206d616e7566616374": 2343, "2068656c7073": 2344, "68696e67": 2345, "2041757374": 2346, "207465726d73": 2347, "207375626a656374": 2348, "696e6b696e67": 2349, "206c6976696e67": 2350, "2064617465": 2351, "204d6179": 2352, "205573": 2353, "75736573": 2354, "69706d656e74": 2355, "206170706c79": 2356, "20656475636174696f6e": 2357, "207479706573": 2358, "7a65": 2359, "20536f6d65": 2360, "656e65": 2361, "20737465": 2362, "626f6f6b": 2363, "20636f6e6365726e": 2364, "4943": 2365, "206d6174657269616c73": 2366, "2d696e": 2367, "454e": 2368, "206167726565": 2369, "20636f6d707574": 2370, "2063616d65": 2371, "20736f6c7574696f6e73": 2372, "6572656e6365": 2373, "204575726f7065": 2374, "6976697479": 2375, "20656d62": 2376, "4953": 2377, "20626172": 2378, "20646f776e6c6f6164": 2379, "20746f75": 2380, "207365656e": 2381, "20686f7765766572": 2382, "72756374696f6e": 2383, "2074657874": 2384, "2070726576656e74": 2385, "2066656174757265": 2386, "207468726f7567686f7574": 2387, "6d656469": 2388, "6e6577": 2389, "696f75736c79": 2390, "2073756767657374": 2391, "4153": 2392, "20717569636b6c79": 2393, "3137": 2394, "20746f6f6b": 2395, "75736564": 2396, "20656e67696e65": 2397, "20696e6e6f76": 2398, "20736174": 2399, "6f6c6c": 2400, "2066697665": 2401, "207761746368": 2402, "20706172656e74": 2403, "756c6573": 2404, "20736c65": 2405, "204665": 2406, "20706f736974696f6e": 2407, "204167": 2408, "2d77": 2409, "6f6b": 2410, "206162696c697479": 2411, "20666c6f77": 2412, "67657374": 2413, "6d70": 2414, "20737472756374": 2415, "206f6666696365": 2416, "207374796c65": 2417, "2d68": 2418, "6d626572": 2419, "2063616e6e6f74": 2420, "204472": 2421, "2062616c": 2422, "76656e74": 2423, "6f766564": 2424, "20436865": 2425, "656e646564": 2426, "207265616479": 2427, "20616e7377": 2428, "204166746572": 2429, "206c6f6e676572": 2430, "20646564": 2431, "2073616c6573": 2432, "6c6567": 2433, "206d696e75746573": 2434, "207265736f7572636573": 2435, "69747574": 2436, "20746f7572": 2437, "206361757365": 2438, "61636b73": 2439, "414c": 2440, "206c696e6b": 2441, "20446573": 2442, "756666": 2443, "66616365": 2444, "20766961": 2445, "20536563": 2446, "20636f6c6f72": 2447, "706172": 2448, "20616374696f6e": 2449, "206c6174": 2450, "206d6f64656c": 2451, "20656974686572": 2452, "20627265616b": 2453, "2066616c6c": 2454, "20657863656c6c": 2455, "20646562": 2456, "61756768": 2457, "617074": 2458, "205448": 2459, "3430": 2460, "2061766f6964": 2461, "2070726f62": 2462, "2069646561": 2463, "696d616c": 2464, "6f7073": 2465, "20656173696c79": 2466, "20637275": 2467, "61736b": 2468, "6963726f": 2469, "656d6963": 2470, "206d6174746572": 2471, "20616273": 2472, "206d697373": 2473, "20434f": 2474, "2d6261736564": 2475, "63617374": 2476, "20757375616c6c79": 2477, "57697468": 2478, "72696e67": 2479, "206661766f72": 2480, "61696c79": 2481, "2061727469636c65": 2482, "20636f6f6b": 2483, "2d746f": 2484, "2064656570": 2485, "61737465": 2486, "20696e737572616e6365": 2487, "2073656e73": 2488, "206d6167": 2489, "206f7264": 2490, "2074616c6b": 2491, "207061727479": 2492, "6d6974": 2493, "20746172676574": 2494, "6f686e": 2495, "6c656765": 2496, "61676572": 2497, "2064656c6976657279": 2498, "72656574": 2499, "2050617274": 2500, "696e6b73": 2501, "20636f6d6d6974": 2502, "72656d65": 2503, "6f7079": 2504, "6f6f676c65": 2505, "2073746174": 2506, "204e6f74": 2507, "20706f6c696379": 2508, "61746f7279": 2509, "205b": 2510, "20616e797468696e67": 2511, "657267": 2512, "2063726561746564": 2513, "204166": 2514, "6d696e67": 2515, "20706f6c6974": 2516, "20736572696573": 2517, "2074616b6573": 2518, "206372656174696e67": 2519, "206e6567": 2520, "20666f6f74": 2521, "20626c61636b": 2522, "20726571756972656d656e7473": 2523, "206661696c": 2524, "6464": 2525, "69746f72": 2526, "206c656164657273": 2527, "6f6c7574696f6e": 2528, "206465636973696f6e": 2529, "206f626a656374": 2530, "69646179": 2531, "206164646564": 2532, "205374617465": 2533, "6a757374": 2534, "20617272": 2535, "2070686f6e65": 2536, "20756e6465727374616e64696e67": 2537, "206e656172": 2538, "6f7564": 2539, "2066726f6e74": 2540, "706f7365": 2541, "205768696c65": 2542, "206973737565": 2543, "20676c6f62616c": 2544, "2070657263656e74": 2545, "204d65": 2546, "7578": 2547, "4865": 2548, "2073656e74": 2549, "6173746963": 2550, "20726567756c": 2551, "2072657370656374": 2552, "20686f7065": 2553, "20736f6c7574696f6e": 2554, "206c6179": 2555, "20776f6e64": 2556, "68656164": 2557, "207061796d656e74": 2558, "6176696e67": 2559, "20736f6f6e": 2560, "697374726174696f6e": 2561, "2064656c69766572": 2562, "207072696e74": 2563, "2070726f64756374696f6e": 2564, "2043616c": 2565, "7379": 2566, "204d696e": 2567, "454f": 2568, "72656e67": 2569, "20666f7277617264": 2570, "206163636f7264696e67": 2571, "20706172746e657273": 2572, "76616c": 2573, "207072616374696365": 2574, "2070726f6a65637473": 2575, "616e6b73": 2576, "2073686f": 2577, "20617474656e74696f6e": 2578, "20776569676874": 2579, "6f6f6e": 2580, "2063656c6c": 2581, "636572": 2582, "7768": 2583, "20706879736963616c": 2584, "2067656e6572616c": 2585, "20626c6f67": 2586, "20526567": 2587, "2072617465": 2588, "2073696d696c6172": 2589, "2074616b656e": 2590, "2048657265": 2591, "6172616e74": 2592, "20507265": 2593, "6f7665726564": 2594, "756e67": 2595, "204b65": 2596, "206a6f75726e6579": 2597, "20776f727468": 2598, "656473": 2599, "726f776e": 2600, "204865616c7468": 2601, "75726368": 2602, "20736578": 2603, "3630": 2604, "20747261636b": 2605, "206c6576656c73": 2606, "2027": 2607, "2070657273": 2608, "206e6574776f726b": 2609, "2070726f6d6f74": 2610, "416e64": 2611, "69746368": 2612, "20616476616e74": 2613, "206166": 2614, "207069636b": 2615, "206c6966": 2616, "20726564": 2617, "707269": 2618, "62616c6c": 2619, "6976656c79": 2620, "20696e766573746d656e74": 2621, "206d6f62696c65": 2622, "72696564": 2623, "e28093": 2624, "2073656e7365": 2625, "20636861726163746572": 2626, "206f757473696465": 2627, "207061706572": 2628, "207175697465": 2629, "4f6e": 2630, "206d756c7469706c65": 2631, "2069736e": 2632, "2065787072657373": 2633, "766572616765": 2634, "2073656c6c": 2635, "205175": 2636, "7768657265": 2637, "427574": 2638, "2067756964": 2639, "746f": 2640, "206c6174657374": 2641, "20696e73696465": 2642, "20747261646974696f6e616c": 2643, "6574696d6573": 2644, "2061636869657665": 2645, "5245": 2646, "2070726f66657373696f6e": 2647, "2f2f": 2648, "206c656164696e67": 2649, "206c616e6775": 2650, "726577": 2651, "2064657374": 2652, "6973746963": 2653, "20616c6d6f7374": 2654, "20537461746573": 2655, "536f": 2656, "20696e7465726e6174696f6e616c": 2657, "20686f6c": 2658, "2077656e74": 2659, "65727665": 2660, "656c74": 2661, "206c65617665": 2662, "20476c": 2663, "20636f6d706c6578": 2664, "68656e73": 2665, "69636c6573": 2666, "4143": 2667, "20736d6f": 2668, "2070726f6772616d73": 2669, "2067656e": 2670, "2075706f6e": 2671, "2046726f6d": 2672, "206361736573": 2673, "6c69676874": 2674, "20636f756e7472696573": 2675, "20696d6d": 2676, "61636564": 2677, "20696e6a": 2678, "2074727565": 2679, "6e6473": 2680, "756d62": 2681, "204e6174696f6e616c": 2682, "206f70706f7274756e6974696573": 2683, "69736f6e": 2684, "20656d706c6f79656573": 2685, "77697365": 2686, "206d617373": 2687, "206c69766573": 2688, "2072656c61746564": 2689, "79736973": 2690, "207461626c65": 2691, "2e2c": 2692, "6174656779": 2693, "6973696f6e73": 2694, "65637574": 2695, "756765": 2696, "2073757374": 2697, "20627564": 2698, "2063656c65": 2699, "206d6f6465726e": 2700, "2e2e2e": 2701, "206f6666696369616c": 2702, "20726967687473": 2703, "20626568696e64": 2704, "2073657474": 2705, "2077726974696e67": 2706, "697461626c65": 2707, "206d6f72": 2708, "20696d6d656469": 2709, "206d656d626572": 2710, "617572": 2711, "207768697465": 2712, "207365656d": 2713, "65616c": 2714, "2067726f756e64": 2715, "20696d706c656d656e74": 2716, "69726974": 2717, "2070726976617465": 2718, "206469726563746c79": 2719, "276c6c": 2720, "20656e636f757261": 2721, "696f6c": 2722, "20706f736974697665": 2723, "20636f6e73756c74": 2724, "20636f6e646974696f6e": 2725, "20636f756e": 2726, "20656e746572": 2727, "206c6f776572": 2728, "207265636569766564": 2729, "20747279696e67": 2730, "20c2": 2731, "65726f7573": 2732, "206f766572616c6c": 2733, "636b696e67": 2734, "204162": 2735, "206578706c6f7265": 2736, "277665": 2737, "2057657374": 2738, "3a2f2f": 2739, "657261": 2740, "206c6f636174696f6e": 2741, "20626f6e": 2742, "656e696e67": 2743, "20646f6d": 2744, "2070696374": 2745, "75626c6963": 2746, "2d7374": 2747, "617469766573": 2748, "20726563656e74": 2749, "20686967686c79": 2750, "207369746573": 2751, "686574686572": 2752, "20676972": 2753, "20656c7365": 2754, "20737765": 2755, "20696e746572616374": 2756, "20536f757468": 2757, "206c69": 2758, "2043697479": 2759, "20737472656e67": 2760, "616461": 2761, "20696e7370": 2762, "2072656c69": 2763, "2064616d616765": 2764, "2065717569706d656e74": 2765, "677261": 2766, "20637279": 2767, "20506572": 2768, "6972696e67": 2769, "20746f6c64": 2770, "20436f6e73": 2771, "756d65": 2772, "206d6f6d656e74": 2773, "20686f6e": 2774, "6c656d656e7473": 2775, "207072696d": 2776, "204175737472616c": 2777, "6f7267": 2778, "2d7265": 2779, "20636f6d696e67": 2780, "206f726967696e616c": 2781, "20576f726c64": 2782, "6261636b": 2783, "276d": 2784, "20706c6179696e67": 2785, "6e636573": 2786, "206269": 2787, "20746f756368": 2788, "20696e666c75": 2789, "416c": 2790, "20626f78": 2791, "20616e616c79": 2792, "2068616972": 2793, "20696e666f726d": 2794, "776f72": 2795, "6169676e": 2796, "61736f6e73": 2797, "20766163": 2798, "697a6573": 2799, "20726174686572": 2800, "20416374": 2801, "6976616c": 2802, "202e": 2803, "20696e74726f6475": 2804, "20646f75": 2805, "206c6963": 2806, "2064697365": 2807, "20476f6f676c65": 2808, "796f6e64": 2809, "6f6c6f676963616c": 2810, "2068616c66": 2811, "686f6c64": 2812, "206578616374": 2813, "20506f6c": 2814, "2050726573": 2815, "20657463": 2816, "207374616e64617264": 2817, "2066696e616c": 2818, "313939": 2819, "204a6f686e": 2820, "20736563757265": 2821, "2061696d": 2822, "706c6573": 2823, "20726564756365": 2824, "2072656d61696e": 2825, "20636172656572": 2826, "206f7267616e697a6174696f6e": 2827, "6570656e64": 2828, "20696e7465726e6574": 2829, "206f7267616e697a": 2830, "616e63696e67": 2831, "696c6c696e67": 2832, "206861707079": 2833, "206d61746368": 2834, "205065": 2835, "20646566696e": 2836, "2073756e": 2837, "2046696e": 2838, "616368696e67": 2839, "2070617469656e7473": 2840, "207468656d73656c766573": 2841, "61697273": 2842, "696e617279": 2843, "2d7570": 2844, "6f626572": 2845, "20646576696365": 2846, "20657863657074": 2847, "636b73": 2848, "20776f726473": 2849, "7261746564": 2850, "2073747261": 2851, "6861": 2852, "2063757272656e746c79": 2853, "202f": 2854, "2c0a": 2855, "20554b": 2856, "20626c6f6f64": 2857, "207368616c6c": 2858, "4174": 2859, "7273": 2860, "20626f7474": 2861, "205363686f6f6c": 2862, "204275": 2863, "20706f696e7473": 2864, "616b6573": 2865, "206275696c74": 2866, "6374696f6e73": 2867, "4f55": 2868, "20536d": 2869, "205365727669636573": 2870, "206461696c79": 2871, "206775696465": 2872, "20636f6d6d6572": 2873, "2066697265": 2874, "20726f7574": 2875, "20416363": 2876, "2066656564": 2877, "6561726368": 2878, "6163686573": 2879, "20737472657373": 2880, "207175616c": 2881, "20486973": 2882, "20657863656c6c656e74": 2883, "656d7074": 2884, "2073617665": 2885, "20676f616c": 2886, "2073756273": 2887, "20706c616e74": 2888, "73696e67": 2889, "697463": 2890, "20506c65617365": 2891, "2061747472616374": 2892, "206e6174757265": 2893, "727567": 2894, "20626164": 2895, "4f6e65": 2896, "206f6e6573": 2897, "20746f7761726473": 2898, "2d79": 2899, "20676f616c73": 2900, "6f72706f72": 2901, "20696c6c": 2902, "616e61": 2903, "206177617265": 2904, "20636f6c6c656374696f6e": 2905, "2063617074": 2906, "20436f756e74": 2907, "20446570": 2908, "6369": 2909, "204d6f7265": 2910, "206865616c746879": 2911, "207765656b73": 2912, "20726f6164": 2913, "2073686f7773": 2914, "2070616e": 2915, "c3a9": 2916, "2068656176": 2917, "656374696f6e": 2918, "416c6c": 2919, "2077616e746564": 2920, "20496e63": 2921, "206e6f726d": 2922, "657373696f6e": 2923, "206672657368": 2924, "206e6f7465": 2925, "2070726f6261626c79": 2926, "2061736b6564": 2927, "68657374": 2928, "20636f6e73697374": 2929, "6173746572": 2930, "2073636865": 2931, "206672616d": 2932, "20646567": 2933, "206163637572": 2934, "207061727473": 2935, "20636f6e7461696e": 2936, "20636f6c6c61626f72": 2937, "206f66666572696e67": 2938, "70706572": 2939, "65737473": 2940, "20636f6e76657273": 2941, "2073746f70": 2942, "20636c69636b": 2943, "67726f756e64": 2944, "6f6d73": 2945, "20696e766f6c766564": 2946, "6f6c65": 2947, "206368616c6c656e676573": 2948, "61747572": 2949, "207375737461696e": 2950, "2053747564": 2951, "69646564": 2952, "686962": 2953, "206472697665": 2954, "6372697074696f6e": 2955, "2072756e6e696e67": 2956, "20666163746f7273": 2957, "20746974": 2958, "61727468": 2959, "6f7068": 2960, "207374726174656779": 2961, "206e6174696f6e616c": 2962, "20616e796f6e65": 2963, "69676174696f6e": 2964, "206c696d69746564": 2965, "204272": 2966, "2077616c6b": 2967, "7368": 2968, "2073706f727473": 2969, "206578657263": 2970, "2063657274": 2971, "50726f": 2972, "707574": 2973, "2077616c6c": 2974, "2073756d": 2975, "626c696e67": 2976, "20617370656374": 2977, "20596f726b": 2978, "2070726563": 2979, "2061646d696e": 2980, "74696573": 2981, "2067756172616e74": 2982, "2053657276696365": 2983, "20506172": 2984, "207361746973": 2985, "20706c65": 2986, "20726576": 2987, "616c75": 2988, "657365": 2989, "207368697070696e67": 2990, "6c696572": 2991, "2068616e6473": 2992, "20636c6f73": 2993, "20696e636c75646564": 2994, "205477": 2995, "6f72616765": 2996, "206c6162": 2997, "2062617365": 2998, "20656e68616e6365": 2999, "207375636365737366756c": 3000, "696465726564": 3001, "20726573706f6e7369626c65": 3002, "2066696c6d": 3003, "206170706c69636174696f6e73": 3004, "69636174696f6e73": 3005, "20746f74616c": 3006, "20446f6e": 3007, "20636f6d6d65726369616c": 3008, "20687474": 3009, "206964656e74696679": 3010, "204e6f727468": 3011, "204f6666": 3012, "206964656173": 3013, "2061676f": 3014, "686f6f64": 3015, "2062616e6b": 3016, "6e61": 3017, "617a696e67": 3018, "686574": 3019, "20536f63": 3020, "20736974756174696f6e": 3021, "20706c616e73": 3022, "2064726177": 3023, "2076657273696f6e": 3024, "2065666665637473": 3025, "204a757374": 3026, "65646572616c": 3027, "63656564": 3028, "72617465": 3029, "2073637265656e": 3030, "20636f7272656374": 3031, "207375627374": 3032, "204f66": 3033, "776f7264": 3034, "20656666696369656e74": 3035, "20697473656c66": 3036, "20706c616e6e696e67": 3037, "6f6e7374": 3038, "206561726e": 3039, "204e6f77": 3040, "2c22": 3041, "20646973706c6179": 3042, "20737065616b": 3043, "2063616d": 3044, "206570": 3045, "2070726f74656374696f6e": 3046, "206265686176": 3047, "20496e74": 3048, "20456d": 3049, "20736978": 3050, "6b6572": 3051, "20656d6f74": 3052, "20617373657373": 3053, "207574696c": 3054, "206368616e6365": 3055, "61646573": 3056, "2063616e64": 3057, "204149": 3058, "20707572706f7365": 3059, "4578": 3060, "69746174696f6e": 3061, "3232": 3062, "2063617368": 3063, "206769766573": 3064, "2070726f6772657373": 3065, "206372756369616c": 3066, "20636f6e64756374": 3067, "20626f617264": 3068, "20646f63756d656e74": 3069, "72617374": 3070, "2068656c64": 3071, "68656c": 3072, "2063616d706169676e": 3073, "2073696c": 3074, "206e6f7468696e67": 3075, "2064657669636573": 3076, "20496e646961": 3077, "726568656e73": 3078, "2064657363726962": 3079, "69656e6379": 3080, "2073747564656e74": 3081, "e2809964": 3082, "204166726963": 3083, "20426f": 3084, "6964656e7473": 3085, "206f7074696d": 3086, "697368696e67": 3087, "796c": 3088, "20736c656570": 3089, "20627564676574": 3090, "20616476657274": 3091, "697065": 3092, "20417574": 3093, "2062656e65666974": 3094, "207261746573": 3095, "20616c7465726e": 3096, "207374657073": 3097, "20726164": 3098, "2065787472656d65": 3099, "63617265": 3100, "616c79": 3101, "20636f6d7075746572": 3102, "20657870657269656e636573": 3103, "20616476696365": 3104, "6f6e7365": 3105, "206f627461696e": 3106, "20736f75726365": 3107, "2e220a": 3108, "207072656d": 3109, "4265": 3110, "756c65": 3111, "756465": 3112, "65746572": 3113, "2048696768": 3114, "20636f6465": 3115, "20736d617274": 3116, "2076696f6c": 3117, "2070617468": 3118, "76657374": 3119, "206974656d": 3120, "20636f6f6c": 3121, "206d696e696d": 3122, "2064656d616e64": 3123, "206b696473": 3124, "20427573696e657373": 3125, "206465617468": 3126, "206c616e6775616765": 3127, "20636f6e73696465726564": 3128, "20666967": 3129, "72617079": 3130, "20737570706c79": 3131, "616c6573": 3132, "20626564": 3133, "616d73": 3134, "70726f": 3135, "206d6978": 3136, "20414e": 3137, "656e73696f6e": 3138, "206c6974": 3139, "4f53": 3140, "69646765": 3141, "2066756c6c79": 3142, "20416d6572696361": 3143, "20676976696e67": 3144, "20646973747269627574": 3145, "2076656869636c65": 3146, "2070726574": 3147, "61676e": 3148, "73796368": 3149, "707265": 3150, "20636f75706c65": 3151, "20636f6d706c6574656c79": 3152, "676172": 3153, "20647279": 3154, "696374696f6e": 3155, "2061726368": 3156, "2063656c656272": 3157, "205061726b": 3158, "207572": 3159, "20417274": 3160, "206d656574696e67": 3161, "4543": 3162, "616279": 3163, "2066696c65": 3164, "5368": 3165, "20636f6e63657074": 3166, "6d697373696f6e": 3167, "206f6273": 3168, "494f4e": 3169, "20776f6f64": 3170, "20696e6372656173696e67": 3171, "6f6d696e67": 3172, "20636f6d6d756e69636174696f6e": 3173, "2070726f636564": 3174, "2077656c": 3175, "206d616368696e65": 3176, "666f726365": 3177, "656564": 3178, "69727468": 3179, "626f617264": 3180, "2072656d656d626572": 3181, "206d656e74696f6e": 3182, "2063756c74757265": 3183, "20616e73776572": 3184, "69626c79": 3185, "206661766f72697465": 3186, "20636c69656e74": 3187, "696c696573": 3188, "206d6574686f6473": 3189, "2061646a757374": 3190, "4f54": 3191, "2070726f66657373696f6e616c73": 3192, "696c73": 3193, "205377": 3194, "206d616e616765": 3195, "20696e67": 3196, "2072656164696e67": 3197, "2073747269": 3198, "206f7070": 3199, "2067726f757073": 3200, "207069656365": 3201, "20776172": 3202, "6172696573": 3203, "2067726f77696e67": 3204, "20646f6f72": 3205, "20696d616765": 3206, "2073747265616d": 3207, "20417265": 3208, "204a616e": 3209, "20707269636573": 3210, "20657870657269656e636564": 3211, "206265796f6e64": 3212, "2078": 3213, "2072656c65": 3214, "206d6178696d": 3215, "20656172": 3216, "6163686564": 3217, "74656e616e6365": 3218, "206566666f7274": 3219, "20657965": 3220, "20696e7374656164": 3221, "7370656374": 3222, "20616e616c79736973": 3223, "726f7570": 3224, "6b79": 3225, "206669726d": 3226, "20706172746e6572": 3227, "206163746976697479": 3228, "6e616c": 3229, "206661": 3230, "20686974": 3231, "6d79": 3232, "20426c61636b": 3233, "207365706172": 3234, "206e7574": 3235, "204d61726b6574": 3236, "626974": 3237, "20736c6f77": 3238, "20766572": 3239, "206c6f6361746564": 3240, "3b0a": 3241, "20726563656e746c79": 3242, "207472616e73666572": 3243, "20617070726f707269": 3244, "2043656e746572": 3245, "3231": 3246, "7465726d": 3247, "20666978": 3248, "6368616e6765": 3249, "2070726564": 3250, "20676f6573": 3251, "20656e737572696e67": 3252, "726567": 3253, "206173736f636961746564": 3254, "3830": 3255, "207472616e73706f7274": 3256, "2072656e74": 3257, "20776f726b6564": 3258, "20416972": 3259, "20636f757274": 3260, "6964696e67": 3261, "20636f6e76656e": 3262, "616e746c79": 3263, "204e6574": 3264, "2068756765": 3265, "20656173696572": 3266, "2075736573": 3267, "2068656174": 3268, "20756c74": 3269, "20646570": 3270, "20726567617264696e67": 3271, "204d6f7374": 3272, "2074656d706572": 3273, "20646576656c6f706564": 3274, "20666c6f6f72": 3275, "20446179": 3276, "61766573": 3277, "20776f6e646572": 3278, "20736e": 3279, "2077616c": 3280, "20636174": 3281, "2d67": 3282, "20647265616d": 3283, "20696e636f6d65": 3284, "2073747261746567696573": 3285, "7269676874": 3286, "20756e63": 3287, "206465706f73": 3288, "2062726f6164": 3289, "206672657175": 3290, "2073656374696f6e": 3291, "20706172656e7473": 3292, "2061756469656e6365": 3293, "2d79656172": 3294, "6c696d": 3295, "207265666c656374": 3296, "20676f6c64": 3297, "5553": 3298, "207061747465726e": 3299, "6772616d": 3300, "20726f756e64": 3301, "6963617465": 3302, "6964646c65": 3303, "494e47": 3304, "20626f6f6b73": 3305, "2063656e746572": 3306, "75617279": 3307, "5768696c65": 3308, "207761726d": 3309, "20636861726765": 3310, "2023": 3311, "206861726d": 3312, "2076697274": 3313, "206f7267616e697a6174696f6e73": 3314, "2074697073": 3315, "20677265656e": 3316, "20707265666572": 3317, "206361727279": 3318, "20486572": 3319, "726568656e73697665": 3320, "2065636f6e6f6d6963": 3321, "20706172746963756c61726c79": 3322, "207072657373757265": 3323, "207772697474656e": 3324, "70697465": 3325, "20446972656374": 3326, "63617065": 3327, "646974696f6e616c6c79": 3328, "207468696e6b696e67": 3329, "6f65": 3330, "2062616c6c": 3331, "206c6f7374": 3332, "20746f776e": 3333, "2072656c6576": 3334, "2d74696d65": 3335, "20696465616c": 3336, "2070616964": 3337, "206166666f7264": 3338, "766579": 3339, "2065737461626c697368": 3340, "20627572": 3341, "20616d617a696e67": 3342, "696c6573": 3343, "2066616972": 3344, "696e6f73": 3345, "20737069726974": 3346, "207265717569726573": 3347, "6e6564": 3348, "2057696c6c": 3349, "2065796573": 3350, "206669676874": 3351, "726f6e6963": 3352, "626f72": 3353, "20507265736964656e74": 3354, "206f776e657273": 3355, "20657374617465": 3356, "20626563616d65": 3357, "74657273": 3358, "2056616c": 3359, "656e7479": 3360, "2062726f77": 3361, "2064696574": 3362, "2073747275": 3363, "206c617773": 3364, "20706574": 3365, "20637269746963616c": 3366, "726177": 3367, "6971756573": 3368, "20707261637469636573": 3369, "206c616e6473": 3370, "73657175": 3371, "20436c65": 3372, "697374696373": 3373, "72657373696f6e": 3374, "20636f6e6e656374696f6e": 3375, "206479": 3376, "20636c65616e696e67": 3377, "20696e63726561736564": 3378, "3233": 3379, "2072656c65617365": 3380, "207374617274696e67": 3381, "2073746f72616765": 3382, "20636f7079": 3383, "20666c6578": 3384, "206461726b": 3385, "20726573706f6e7365": 3386, "2073756d6d6572": 3387, "204163": 3388, "207265706c616365": 3389, "414d": 3390, "20636f6d706f6e": 3391, "656361757365": 3392, "204d63": 3393, "206761696e": 3394, "20726573706f6e64": 3395, "20726567696f6e": 3396, "20686f7370": 3397, "20736177": 3398, "79636c65": 3399, "205061": 3400, "6e616d65": 3401, "206e6f74696365": 3402, "656e6765": 3403, "206c617465": 3404, "207370656564": 3405, "69766572": 3406, "20726561736f6e73": 3407, "353030": 3408, "20636f6d666f727461626c65": 3409, "6368616e": 3410, "6c7573697665": 3411, "20617474656d7074": 3412, "206d65616e696e67": 3413, "757468": 3414, "2072657665": 3415, "20706f6c69746963616c": 3416, "617368696f6e": 3417, "205468656e": 3418, "2061637175": 3419, "7370": 3420, "20696d61676573": 3421, "20737175": 3422, "204c6574": 3423, "204173736f6369": 3424, "20706f77657266756c": 3425, "20486f757365": 3426, "20526564": 3427, "6172696c79": 3428, "204765": 3429, "69636970": 3430, "2061766572616765": 3431, "20626c65": 3432, "616773": 3433, "2d7465726d": 3434, "2046616365": 3435, "6f69636573": 3436, "206361746567": 3437, "20436f6d6d756e": 3438, "20696e646570656e64": 3439, "20737461746573": 3440, "2064727567": 3441, "2050726f66": 3442, "3930": 3443, "207365727665": 3444, "206772616475": 3445, "69746368656e": 3446, "7374616e64696e67": 3447, "205456": 3448, "6974656c79": 3449, "20696e737469747574": 3450, "2047656e6572": 3451, "4166746572": 3452, "20736f6e67": 3453, "20696e7465726573746564": 3454, "20707265747479": 3455, "20657865637574": 3456, "2068656c70696e67": 3457, "20646976": 3458, "65726961": 3459, "206578697374696e67": 3460, "20706c61636573": 3461, "20646966666572656e6365": 3462, "2066616d696c696573": 3463, "206c6f6f6b73": 3464, "204c6177": 3465, "20626567616e": 3466, "756265": 3467, "20646564696361746564": 3468, "20696d6d6564696174656c79": 3469, "20426172": 3470, "68617073": 3471, "616c696e67": 3472, "207365656d73": 3473, "20696e697469616c": 3474, "20496d": 3475, "20494e": 3476, "6f6c6f67696573": 3477, "6f75736c79": 3478, "206578706563746564": 3479, "2057686574686572": 3480, "20626c6f636b": 3481, "206576616c75": 3482, "206566666f727473": 3483, "206665656c696e67": 3484, "2073756666": 3485, "2077697368": 3486, "2053696d": 3487, "6572656e636573": 3488, "20446973": 3489, "6974757465": 3490, "204564": 3491, "206f666665726564": 3492, "20686f72": 3493, "20617474656e64": 3494, "20776f6d616e": 3495, "207265706c": 3496, "656e636573": 3497, "20544845": 3498, "207765627369746573": 3499, "6f7665726e": 3500, "20736f6d6574696d6573": 3501, "2072756c6573": 3502, "20636f6e737472756374696f6e": 3503, "206c6f616e": 3504, "656b": 3505, "6f66666565": 3506, "20726f6f66": 3507, "204d6f6e": 3508, "206d6174": 3509, "20636f72706f72": 3510, "446f": 3511, "20656c656374726963": 3512, "63756c": 3513, "2077726f6e67": 3514, "204a75": 3515, "207374616765": 3516, "616e6379": 3517, "2076616c75": 3518, "2073706f74": 3519, "2065787065727473": 3520, "2063726f7373": 3521, "206361706974616c": 3522, "205472616e73": 3523, "6974617279": 3524, "617269": 3525, "596f7572": 3526, "20616374697665": 3527, "4279": 3528, "2073746f72696573": 3529, "2052757373": 3530, "726f75676874": 3531, "736563": 3532, "20666f726d6572": 3533, "20616c6c6f77696e67": 3534, "20627261": 3535, "2047726f7570": 3536, "6964656e7469616c": 3537, "206164756c74": 3538, "20706c61796572": 3539, "616b73": 3540, "2073746f636b": 3541, "20686973746f72": 3542, "e280a2": 3543, "656e736573": 3544, "564944": 3545, "7175616c697479": 3546, "2070726f706f73": 3547, "7363": 3548, "207269": 3549, "20496e7465726e6174696f6e616c": 3550, "696d696e": 3551, "2073657474696e67": 3552, "20646570617274": 3553, "2074656163": 3554, "6865726e": 3555, "207375727072": 3556, "72656369": 3557, "206d657373616765": 3558, "4164": 3559, "20696e697469": 3560, "207465616d73": 3561, "207479706963616c6c79": 3562, "206c6564": 3563, "206163636f6d": 3564, "204368696e61": 3565, "205570": 3566, "20616e696d": 3567, "20636f6e74696e75": 3568, "6172746d656e74": 3569, "2064697365617365": 3570, "696361": 3571, "616d6564": 3572, "207472756c79": 3573, "20657870616e64": 3574, "206f63637572": 3575, "20706c6174666f726d73": 3576, "206a7564": 3577, "20546563686e": 3578, "20646973636f766572": 3579, "206d6f76696e67": 3580, "2070617274696573": 3581, "2070617469656e74": 3582, "206465636973696f6e73": 3583, "3730": 3584, "20436f756e7479": 3585, "206e6176": 3586, "20617070726f707269617465": 3587, "20636f6d70726568656e73697665": 3588, "5068": 3589, "206d6f74686572": 3590, "2e6f7267": 3591, "206d6f726e696e67": 3592, "696c6c65": 3593, "207772697465": 3594, "5468657365": 3595, "20557365": 3596, "20756e64": 3597, "206d6f756e74": 3598, "20456c": 3599, "6970706564": 3600, "4554": 3601, "20506c6179": 3602, "207472616465": 3603, "20737572726f756e64": 3604, "20667261": 3605, "4950": 3606, "6d6f7265": 3607, "20647572": 3608, "20736861726564": 3609, "204576657279": 3610, "20616476616e74616765": 3611, "69666f726e": 3612, "2072656c6576616e74": 3613, "2076617269": 3614, "204f6374": 3615, "77696465": 3616, "6f6c757465": 3617, "656e677468": 3618, "6963696e67": 3619, "20686f7573": 3620, "206f7264657273": 3621, "204d616e79": 3622, "206d61696e74656e616e6365": 3623, "726179": 3624, "2070726f64756365": 3625, "626f6e": 3626, "206d656e74616c": 3627, "207075626c6973686564": 3628, "506c65617365": 3629, "64756c65": 3630, "206261736963": 3631, "2050726f6772616d": 3632, "2062616c616e6365": 3633, "20696e74657276696577": 3634, "2065786163746c79": 3635, "72756974": 3636, "202c": 3637, "20656c656d656e7473": 3638, "207374616e6461726473": 3639, "6c696b65": 3640, "206f757464": 3641, "2064657465726d696e65": 3642, "6d7074": 3643, "6162696c6974696573": 3644, "206d6973": 3645, "436f6d": 3646, "20696e67726564": 3647, "617264656e": 3648, "20737472656e677468": 3649, "6973747279": 3650, "20657870657274697365": 3651, "2077656172": 3652, "2067696674": 3653, "20737479": 3654, "20476574": 3655, "204d61726368": 3656, "2073757266616365": 3657, "2042726974": 3658, "647563": 3659, "6f75676874": 3660, "68697073": 3661, "20436f6d70616e79": 3662, "2042726f": 3663, "207472616e73616374": 3664, "20437573746f6d": 3665, "204f6e6c696e65": 3666, "6974656374": 3667, "20616476616e636564": 3668, "657874": 3669, "4e6f": 3670, "6d61": 3671, "206d616e7566616374757265": 3672, "2067657473": 3673, "20456e676c697368": 3674, "6170616e": 3675, "2072657374617572": 3676, "2067616d626c696e67": 3677, "2070726576696f7573": 3678, "2044657369676e": 3679, "204342": 3680, "454c": 3681, "63696c": 3682, "20486172": 3683, "204f6e6365": 3684, "2044656c": 3685, "2073616c65": 3686, "61736b73": 3687, "6c79696e67": 3688, "776f6f64": 3689, "4d79": 3690, "206d6f64656c73": 3691, "2074726164": 3692, "6c696573": 3693, "20627573": 3694, "2052656d": 3695, "2043616e616461": 3696, "6f6f7374": 3697, "20636f6d6d756e6974696573": 3698, "2046726565": 3699, "617261": 3700, "757274": 3701, "206d656173757265": 3702, "6f6b65": 3703, "206c696d6974": 3704, "766973": 3705, "6c696564": 3706, "2061707072656369": 3707, "2072656c6178": 3708, "207072696e63": 3709, "69666f726e6961": 3710, "48657265": 3711, "e2809d0a": 3712, "20666162": 3713, "206261736973": 3714, "2074656e": 3715, "20526563": 3716, "6f677261706879": 3717, "2070617373696f6e": 3718, "20726f62": 3719, "6f636b73": 3720, "656e63696573": 3721, "2045617374": 3722, "207374726169676874": 3723, "2066656573": 3724, "207265706f72746564": 3725, "207469636b": 3726, "206e696365": 3727, "2f6f72": 3728, "6163697479": 3729, "20696e63726564": 3730, "617368696e67": 3731, "6578616d706c65": 3732, "2068656172": 3733, "6775": 3734, "6172746572": 3735, "72757074": 3736, "7a79": 3737, "7269616c": 3738, "206372797074": 3739, "2074696d": 3740, "206272656174": 3741, "204765726d": 3742, "20486f6d65": 3743, "206f7065726174696f6e73": 3744, "2074726970": 3745, "20436f7572": 3746, "2074686f7573": 3747, "3238": 3748, "65746963": 3749, "2072656c6174696f6e7368697073": 3750, "2068696768657374": 3751, "206368616e6e": 3752, "20626f6e7573": 3753, "2073656c656374696f6e": 3754, "2d65": 3755, "6e6573": 3756, "206269727468": 3757, "2066656c74": 3758, "4973": 3759, "2d66726565": 3760, "206a6f696e": 3761, "204f7574": 3762, "204175737472616c6961": 3763, "20507269": 3764, "61746963616c6c79": 3765, "206368656d": 3766, "2062656c6965": 3767, "6f6d656e": 3768, "2043686172": 3769, "206365727461696e6c79": 3770, "20746872656174": 3771, "6f72646572": 3772, "20736d6f6f7468": 3773, "204669727374": 3774, "20436f756e": 3775, "2046616365626f6f6b": 3776, "68616d": 3777, "206170706f696e74": 3778, "20746563686e6963616c": 3779, "20746872": 3780, "6f646179": 3781, "2073746174656d656e74": 3782, "2077696c64": 3783, "6967617465": 3784, "2042657374": 3785, "206e756d62657273": 3786, "20506179": 3787, "6f6c66": 3788, "20696e737472756374": 3789, "436c": 3790, "6d6974746564": 3791, "736573": 3792, "20696e746572657374696e67": 3793, "2066756e6473": 3794, "20746572": 3795, "6b6579": 3796, "20676173": 3797, "20737472756767": 3798, "3236": 3799, "204d7573": 3800, "2070726f63657373696e67": 3801, "20446576656c6f70": 3802, "7072696c": 3803, "656464696e67": 3804, "2065766964656e6365": 3805, "2074726166666963": 3806, "736574": 3807, "20736f6c64": 3808, "406578616d706c65": 3809, "2064656d6f6e7374": 3810, "2070686f746f73": 3811, "2064656369646564": 3812, "206d7973656c66": 3813, "20746563686e6971756573": 3814, "2072656c6961626c65": 3815, "2070726f636573736573": 3816, "204575726f7065616e": 3817, "656e6564": 3818, "20666174": 3819, "2070656e": 3820, "20417567": 3821, "20737472756374757265": 3822, "206f7468657277697365": 3823, "206e6174696f6e": 3824, "2064656164": 3825, "20726570616972": 3826, "20646567726565": 3827, "756e64726564": 3828, "206372656174697665": 3829, "6c7573696f6e": 3830, "2052656164": 3831, "206874747073": 3832, "207065616365": 3833, "61726573": 3834, "69636b73": 3835, "206164617074": 3836, "206170617274": 3837, "206c6f6164": 3838, "204465706172746d656e74": 3839, "204d72": 3840, "2067726561746572": 3841, "20676c617373": 3842, "207472616e73666f726d": 3843, "20646566696e6974656c79": 3844, "20656d70": 3845, "20436173": 3846, "206d6964": 3847, "206e65696768": 3848, "6f636f6c": 3849, "6f6f73696e67": 3850, "204576656e": 3851, "2061727269": 3852, "556e": 3853, "20636c696e": 3854, "706f736573": 3855, "2044617461": 3856, "206e6f726d616c": 3857, "206168656164": 3858, "72616674": 3859, "3237": 3860, "20737072656164": 3861, "20626174746572": 3862, "207363686f6f6c73": 3863, "494c": 3864, "206f63636173": 3865, "20626561757479": 3866, "2076696374": 3867, "524f": 3868, "2053657074": 3869, "20657272": 3870, "617263": 3871, "2062726f75676874": 3872, "204d6f64": 3873, "4150": 3874, "2066656172": 3875, "206c6f766564": 3876, "2061646f70": 3877, "656e74757265": 3878, "6d6173": 3879, "2077616974": 3880, "2043616c69666f726e6961": 3881, "2072656d6f7665": 3882, "2073636f7265": 3883, "756273": 3884, "7269656e646c79": 3885, "204954": 3886, "313938": 3887, "6174746c65": 3888, "20636f6d6d69746d656e74": 3889, "2066696e65": 3890, "20476f": 3891, "2076697375616c": 3892, "20736c6f74": 3893, "617272616e74": 3894, "204150": 3895, "20466562": 3896, "6573746572": 3897, "616e67696e67": 3898, "206d61726b": 3899, "20427261": 3900, "2063616e646964": 3901, "656c6c6967": 3902, "204f46": 3903, "206e756d65726f7573": 3904, "2d7175616c697479": 3905, "2067656e6572616c6c79": 3906, "20696d6167": 3907, "20616476616e6365": 3908, "207072696d617279": 3909, "20766973696f6e": 3910, "72657374": 3911, "2053797374656d": 3912, "20736369656e74": 3913, "206865616c746863617265": 3914, "6572696573": 3915, "2075736566756c": 3916, "2061636164": 3917, "204c61": 3918, "2053616e": 3919, "206b69746368656e": 3920, "20736572696f7573": 3921, "204a756e65": 3922, "6974697a": 3923, "2068616e646c65": 3924, "69616d": 3925, "206578657263697365": 3926, "e0a4": 3927, "6c696e6573": 3928, "20686f6d6573": 3929, "204a616e75617279": 3930, "20736179696e67": 3931, "2072696368": 3932, "6f756e636564": 3933, "696c696e67": 3934, "206472657373": 3935, "206177617264": 3936, "206c696e6573": 3937, "62616e": 3938, "2062616279": 3939, "20707572706f736573": 3940, "5265": 3941, "207073796368": 3942, "616d61": 3943, "20656e7465727461696e": 3944, "20626567696e6e696e67": 3945, "20636f6e6365726e73": 3946, "207061676573": 3947, "2076616c7561626c65": 3948, "207265706f727473": 3949, "2065787472656d656c79": 3950, "206d656368616e": 3951, "204a6170616e": 3952, "4d53": 3953, "2070726566": 3954, "646f6d": 3955, "204a6573": 3956, "2067616d696e67": 3957, "206361726473": 3958, "2073747564696573": 3959, "20496e6469616e": 3960, "2073686970": 3961, "20416c736f": 3962, "206368616c6c656e6765": 3963, "656e696f72": 3964, "2077656174686572": 3965, "2066656574": 3966, "6163696e67": 3967, "207265666572": 3968, "6976696c": 3969, "76656e7565": 3970, "20696d706f7274616e6365": 3971, "726973": 3972, "6f646573": 3973, "7a7a": 3974, "2072657669657773": 3975, "20537465": 3976, "6d70746f6d73": 3977, "206d697373696f6e": 3978, "636f6d696e67": 3979, "207461696c": 3980, "204d616e6167656d656e74": 3981, "63656d626572": 3982, "736f6e": 3983, "20476f7665726e": 3984, "20506174": 3985, "6e79": 3986, "20736f7572636573": 3987, "2076617279": 3988, "204d616b65": 3989, "70656e": 3990, "6f79616c": 3991, "2066696c6573": 3992, "2070726f766964657273": 3993, "20656666696369656e6379": 3994, "207368617065": 3995, "617363": 3996, "20766f696365": 3997, "d0b5": 3998, "61746976656c79": 3999, "696272617279": 4000, "61677565": 4001, "54686174": 4002, "616c74": 4003, "20776f726b657273": 4004, "20676172": 4005, "20416e79": 4006, "6f76656d626572": 4007, "6f6e646f6e": 4008, "2074657374696e67": 4009, "6f73757265": 4010, "61696e74": 4011, "6974746572": 4012, "206c61636b": 4013, "206661726d": 4014, "20496e666f726d6174696f6e": 4015, "616d656e74": 4016, "6f6f6d": 4017, "2072656d6f76": 4018, "2072657461696c": 4019, "756b": 4020, "20646576656c6f70696e67": 4021, "2068756e64726564": 4022, "2045616368": 4023, "697373696f6e73": 4024, "2066656c6c": 4025, "206d6f76656d656e74": 4026, "20736369656e6365": 4027, "20616c6c6f776564": 4028, "617465766572": 4029, "20636f6c6c656765": 4030, "206566666563746976656c79": 4031, "686f6c": 4032, "20617373697374616e6365": 4033, "697261": 4034, "6572766564": 4035, "20747572": 4036, "2072656c6561736564": 4037, "206c6172676572": 4038, "6572736f6e616c": 4039, "2073686f70": 4040, "2064726976696e67": 4041, "2066656d": 4042, "2063686174": 4043, "72656564": 4044, "20627574746f6e": 4045, "20c2a3": 4046, "20726573697374": 4047, "20766964656f73": 4048, "206172656e": 4049, "206f70696e": 4050, "2064616e67": 4051, "20506c616e": 4052, "207370656e74": 4053, "2066617368696f6e": 4054, "204f766572": 4055, "7275617279": 4056, "207761736e": 4057, "206261636b67726f756e64": 4058, "207265707574": 4059, "2074656e64": 4060, "7261656c": 4061, "20646570656e64696e67": 4062, "20656174": 4063, "69737465726564": 4064, "20706c61796564": 4065, "6f6c79": 4066, "3239": 4067, "20616c6f6e65": 4068, "69636564": 4069, "616e6368": 4070, "2050616c": 4071, "20636f7665726564": 4072, "2066696e64696e67": 4073, "54686579": 4074, "2065737461626c6973686564": 4075, "6f76657279": 4076, "2067617665": 4077, "204176": 4078, "746565": 4079, "69626572": 4080, "204b696e67": 4081, "2057696e64": 4082, "20646f6c6c": 4083, "616e6b696e67": 4084, "20737461747573": 4085, "20636f66666565": 4086, "206675726e": 4087, "2076616c756573": 4088, "20446176": 4089, "5053": 4090, "20417072696c": 4091, "20686172": 4092, "2070726f70657274696573": 4093, "576879": 4094, "627572": 4095, "2068656c706564": 4096, "204772": 4097, "20636c696d617465": 4098, "20706f6c696365": 4099, "2066696c6c": 4100, "616e69": 4101, "20706f6c6963696573": 4102, "20476f6c64": 4103, "20636f6c64": 4104, "206c617267657374": 4105, "20706f77": 4106, "2045647563": 4107, "206b656570696e67": 4108, "204f74686572": 4109, "20576172": 4110, "2064697665727365": 4111, "20636f6c6f7273": 4112, "616d696e": 4113, "636c65": 4114, "205265736561726368": 4115, "2057656c6c": 4116, "6d6f6e": 4117, "686f757365": 4118, "20706965636573": 4119, "20506f7274": 4120, "20726566756e64": 4121, "4e6f77": 4122, "206865617264": 4123, "2077616e7473": 4124, "206e6574776f72": 4125, "3335": 4126, "2074726164696e67": 4127, "7375": 4128, "20706c616e7473": 4129, "20686f7572": 4130, "6f72726f77": 4131, "20656d657267": 4132, "657474": 4133, "2064726f": 4134, "207265616c697479": 4135, "676f696e67": 4136, "20736f7274": 4137, "20636173696e6f73": 4138, "20636f6f6b696573": 4139, "63656c": 4140, "2070726f7669646572": 4141, "72656e6368": 4142, "206d6963726f": 4143, "2062617468": 4144, "2043617265": 4145, "61756c74": 4146, "6c696e": 4147, "206465706f736974": 4148, "20736f6369657479": 4149, "696679696e67": 4150, "20576562": 4151, "4144": 4152, "2073757276": 4153, "206162736f6c757465": 4154, "2061707065616c": 4155, "6974756465": 4156, "202b": 4157, "626f6479": 4158, "206665646572616c": 4159, "20726f6c6c": 4160, "20666f726d73": 4161, "20434f564944": 4162, "2070726573656e6365": 4163, "616d6d": 4164, "20496e73": 4165, "206d6572": 4166, "6f73696e67": 4167, "206f776e6572": 4168, "20666174686572": 4169, "204a756c79": 4170, "206c696e6b73": 4171, "206972": 4172, "207475726e6564": 4173, "2d6f66": 4174, "72657373697665": 4175, "706f72617279": 4176, "20636f6d7061726564": 4177, "5453": 4178, "20636f6d706c65746564": 4179, "207363686564756c65": 4180, "2063616e636572": 4181, "616b6572": 4182, "646564": 4183, "2d2d": 4184, "696e6374": 4185, "2053657074656d626572": 4186, "2073686f776e": 4187, "206765": 4188, "20436f72": 4189, "72756374757265": 4190, "757365756d": 4191, "6f7468696e67": 4192, "20626f79": 4193, "206c656e677468": 4194, "6963696e65": 4195, "20706f6f6c": 4196, "6666656374": 4197, "206b6e6577": 4198, "204f63746f626572": 4199, "20626f6f7374": 4200, "207468657265666f7265": 4201, "20617373657473": 4202, "20726573706f6e736962696c697479": 4203, "20657468": 4204, "617a6f6e": 4205, "20416e74": 4206, "20646f63756d656e7473": 4207, "62616e64": 4208, "20706c61636564": 4209, "20616e6e75616c": 4210, "636c": 4211, "2062696c6c696f6e": 4212, "2066696e697368": 4213, "206361706163697479": 4214, "616a": 4215, "206d6f766965": 4216, "206c7578": 4217, "20636f766572616765": 4218, "696461": 4219, "636f696e": 4220, "2065786368616e6765": 4221, "494d": 4222, "4c45": 4223, "206e6561726c79": 4224, "204c6f6e646f6e": 4225, "206d65617375726573": 4226, "6c6174696f6e": 4227, "204578706572": 4228, "7573696e67": 4229, "2068696d73656c66": 4230, "20576f726b": 4231, "65726f": 4232, "207365656b": 4233, "20544f": 4234, "20736563746f72": 4235, "206578636974696e67": 4236, "20417567757374": 4237, "20696e6772656469656e7473": 4238, "6d626f6c": 4239, "2073686f7070696e67": 4240, "20636f6d6d656e74": 4241, "20666565": 4242, "20627261696e": 4243, "207269736b73": 4244, "696d656e74": 4245, "20696e636f72706f72": 4246, "20666f726365": 4247, "2061637475616c": 4248, "204a65737573": 4249, "20616464696e67": 4250, "207265616374": 4251, "2072656d61696e73": 4252, "20666162726963": 4253, "70686f6e65": 4254, "6c61746564": 4255, "706574": 4256, "2070726f6d6f7465": 4257, "204c656172": 4258, "696174696f6e": 4259, "736572": 4260, "206561726c696572": 4261, "69636f6e": 4262, "6e6f776e": 4263, "206368616e676564": 4264, "2070696374757265": 4265, "206d6f": 4266, "2e67": 4267, "2073796d70746f6d73": 4268, "616e64656d6963": 4269, "206265636f6d696e67": 4270, "2077656c636f6d65": 4271, "2074616c6b696e67": 4272, "2066616e73": 4273, "204d696368": 4274, "207061636b616765": 4275, "20696d706c": 4276, "696e79": 4277, "20747261696e": 4278, "63686f6c": 4279, "20446563656d626572": 4280, "206f726967696e": 4281, "20636c61696d73": 4282, "636865": 4283, "2063697263756d": 4284, "2067756172616e746565": 4285, "20636f7265": 4286, "20616374696f6e73": 4287, "777777": 4288, "69737472": 4289, "207365656b696e67": 4290, "20696e7374616c6c6174696f6e": 4291, "76657265": 4292, "2049737261656c": 4293, "20696e6e6f766174697665": 4294, "2d53": 4295, "207461736b73": 4296, "206265636f6d6573": 4297, "206c656164657273686970": 4298, "6f63616c": 4299, "206d61796265": 4300, "207265636f6d6d656e646564": 4301, "207375697461626c65": 4302, "69746f7273": 4303, "756e6174656c79": 4304, "5552": 4305, "616772616d": 4306, "3435": 4307, "204e6f76656d626572": 4308, "726f7564": 4309, "205468656972": 4310, "206272616e6473": 4311, "207461736b": 4312, "207061696e74": 4313, "20537572": 4314, "206c61756e6368": 4315, "20726170": 4316, "20646174696e67": 4317, "656e646572": 4318, "2064796e616d": 4319, "2073686172696e67": 4320, "2042656e": 4321, "203a": 4322, "20676f6f6473": 4323, "206865617679": 4324, "20656e7669726f6e6d656e74616c": 4325, "206163686965": 4326, "6666696369656e74": 4327, "6173757265": 4328, "2d667269656e646c79": 4329, "20486f6c": 4330, "207065727370656374": 4331, "204772656174": 4332, "72696d": 4333, "20466f756e64": 4334, "20636c6f7564": 4335, "726967": 4336, "72696566": 4337, "20636f6e7461696e73": 4338, "206d6f7274": 4339, "20636f6d6d6974746564": 4340, "20637570": 4341, "2062657474696e67": 4342, "206d61726b657473": 4343, "206265686176696f72": 4344, "68656e74": 4345, "20636175736564": 4346, "20696e736967687473": 4347, "207669657773": 4348, "2064656c6963": 4349, "20646174": 4350, "2063756c747572616c": 4351, "2070756c6c": 4352, "3939": 4353, "726f6964": 4354, "6976656e657373": 4355, "2070726f7065726c79": 4356, "20736c69676874": 4357, "206d6173746572": 4358, "206a6f6273": 4359, "207669727475616c": 4360, "2064657369676e73": 4361, "207061796d656e7473": 4362, "20536b": 4363, "206163636f756e7473": 4364, "20636f6d62696e6174696f6e": 4365, "454d": 4366, "2062616e64": 4367, "2070686f746f": 4368, "206b6e": 4369, "20626c7565": 4370, "207469746c65": 4371, "69676e6564": 4372, "e1bb": 4373, "20526574": 4374, "6c69616e6365": 4375, "20616e6e6f756e636564": 4376, "20736f75": 4377, "20496e746572": 4378, "69636b696e67": 4379, "6f6d6d6f64": 4380, "20436f6c6c656765": 4381, "313937": 4382, "20536c": 4383, "20627579696e67": 4384, "7465726e616c": 4385, "20656e7375726573": 4386, "20636f6e74696e756573": 4387, "204665627275617279": 4388, "79696e67": 4389, "6372697074": 4390, "2061737065637473": 4391, "20616c7465726e6174697665": 4392, "20766f74": 4393, "20656e636f7572616765": 4394, "20626f74746f6d": 4395, "20617263686974656374": 4396, "20477261": 4397, "2d746865": 4398, "20766f6c756e74": 4399, "20546578": 4400, "756768": 4401, "20657874656e73697665": 4402, "206c6f7473": 4403, "2074726f75": 4404, "20776f727279": 4405, "666974": 4406, "20746563686e6f6c6f67696573": 4407, "204143": 4408, "756e6374696f6e": 4409, "207363656e": 4410, "206c6f6f6b6564": 4411, "2072656c6967": 4412, "65696e67": 4413, "6f726174696f6e": 4414, "20537472656574": 4415, "5354": 4416, "6f756e6473": 4417, "696f73": 4418, "207374756666": 4419, "204173736f63696174696f6e": 4420, "2061707073": 4421, "2066616e74": 4422, "69616e74": 4423, "20646563696465": 4424, "20636c6173736963": 4425, "2076697369746f7273": 4426, "20736f6c6964": 4427, "207377656574": 4428, "2074656d7065726174757265": 4429, "76696c6c65": 4430, "77656c6c": 4431, "2077696e646f77": 4432, "20736176": 4433, "206164766572746973696e67": 4434, "204368726973746d6173": 4435, "486f7765766572": 4436, "206c6164": 4437, "20666f6375736564": 4438, "3336": 4439, "6d6174": 4440, "205479": 4441, "20666163696c6974696573": 4442, "204164646974696f6e616c6c79": 4443, "c2ae": 4444, "2061747461636b": 4445, "2074686572617079": 4446, "2066696e616c6c79": 4447, "6f756e6365": 4448, "476574": 4449, "6572766174696f6e": 4450, "2073657373696f6e": 4451, "20776174": 4452, "616c6564": 4453, "7572696573": 4454, "206c69746572": 4455, "2077686f7365": 4456, "20646961676e": 4457, "756e6e696e67": 4458, "20636f6e6e6563746564": 4459, "696e6e6572": 4460, "20636f6e74696e756564": 4461, "20636f756e746572": 4462, "20706f6f72": 4463, "20646f63746f72": 4464, "207375737461696e61626c65": 4465, "206167656e6379": 4466, "69736174696f6e": 4467, "2e2e2e0a": 4468, "2077656464696e67": 4469, "2053454f": 4470, "207369676e69666963616e746c79": 4471, "207072657061726564": 4472, "20536f6369616c": 4473, "656368": 4474, "20706f70756c6174696f6e": 4475, "2077617272616e74": 4476, "20537065": 4477, "20414e44": 4478, "2121": 4479, "2d46": 4480, "206772617068": 4481, "20616e7469": 4482, "2065636f6e6f6d79": 4483, "2070726f6475636564": 4484, "20556e646572": 4485, "2061677265656d656e74": 4486, "20426574": 4487, "6f766573": 4488, "696c6974": 4489, "206c6f7365": 4490, "207072696e636970": 4491, "796572": 4492, "20566973": 4493, "626f78": 4494, "2073796d626f6c": 4495, "206d656e74696f6e6564": 4496, "646f776e": 4497, "207370656369666963616c6c79": 4498, "206d696c6974617279": 4499, "5f5f": 4500, "666f6c": 4501, "204d6f72": 4502, "2073656c6c696e67": 4503, "6972656374696f6e": 4504, "756d6d": 4505, "20736174697366": 4506, "2070757368": 4507, "206d617474": 4508, "20686f74656c": 4509, "6974757265": 4510, "69746e657373": 4511, "20616c74686f756768": 4512, "696669636174696f6e73": 4513, "20757064617465": 4514, "63746f7273": 4515, "657373696f6e73": 4516, "20696e666f726d6564": 4517, "2072656d6f7465": 4518, "207472757468": 4519, "206f6c646572": 4520, "6f6463617374": 4521, "20726567756c6174696f6e73": 4522, "6879": 4523, "206f7065726174696e67": 4524, "2074616c656e74": 4525, "756d6e": 4526, "2070657268617073": 4527, "206163637572617465": 4528, "6c6967": 4529, "2076616c6964": 4530, "e2809d2c": 4531, "206d697374": 4532, "20646973636f756e74": 4533, "696e657365": 4534, "656c696e6573": 4535, "69727573": 4536, "20436865636b": 4537, "6c616e6473": 4538, "206a6f696e74": 4539, "20696e6a757279": 4540, "20467269646179": 4541, "2062696767657374": 4542, "4956": 4543, "696c696172": 4544, "536f6d65": 4545, "207765656b65": 4546, "2063686f69636573": 4547, "20636f6e76": 4548, "20576f7264": 4549, "717565": 4550, "72696572": 4551, "656d79": 4552, "7261737472756374757265": 4553, "206c6561646572": 4554, "20656d706c6f796565": 4555, "6f726765": 4556, "204f6666696365": 4557, "2073686f6f74": 4558, "2059656172": 4559, "205375706572": 4560, "20646f6773": 4561, "2042656361757365": 4562, "20706c7573": 4563, "20436f757274": 4564, "2062756c": 4565, "676e": 4566, "206d6964646c65": 4567, "20657374696d": 4568, "756e6b": 4569, "20706c656e7479": 4570, "20496e7465726e6574": 4571, "617379": 4572, "2070616e64656d6963": 4573, "2042656c": 4574, "2063616c6c73": 4575, "20426f617264": 4576, "20696e74657265737473": 4577, "20436f756e63696c": 4578, "2073657474696e6773": 4579, "20736572766564": 4580, "206272696e6773": 4581, "696369616c": 4582, "2075706461746573": 4583, "61696c73": 4584, "20736565696e67": 4585, "2053756e64": 4586, "204469726563746f72": 4587, "2070726f7564": 4588, "70616e": 4589, "2066756c66": 4590, "207468616e6b": 4591, "2066697368": 4592, "20616e78": 4593, "20656d6572": 4594, "204d6963726f": 4595, "20434244": 4596, "204953": 4597, "6f6e646179": 4598, "756c61": 4599, "2064697370": 4600, "2070726976616379": 4601, "61737473": 4602, "6962696c6974696573": 4603, "20477265656e": 4604, "2063697263756d7374": 4605, "2044697374": 4606, "726f7465": 4607, "72656e6379": 4608, "204e657773": 4609, "20776f6e64657266756c": 4610, "20666f6c": 4611, "20537472": 4612, "697665726564": 4613, "2d6f6e": 4614, "206772616e74": 4615, "2063656e7472616c": 4616, "617374696e67": 4617, "20636f7572736573": 4618, "6479": 4619, "4142": 4620, "20736f6e": 4621, "2064656e": 4622, "2044656d": 4623, "20636f6d7065746974697665": 4624, "67656e": 4625, "207465616368696e67": 4626, "20646f7562": 4627, "6973686573": 4628, "20696e6e6f766174696f6e": 4629, "2068656c7066756c": 4630, "2064657461696c6564": 4631, "206163636f6d6d6f64": 4632, "2053696e6365": 4633, "2047656e6572616c": 4634, "6f6f706572": 4635, "2070726163746963616c": 4636, "20416672696361": 4637, "204f52": 4638, "626c": 4639, "206661697468": 4640, "20666f726569676e": 4641, "206578686962": 4642, "2d43": 4643, "20657870656e73697665": 4644, "726963616c": 4645, "2063656c6c73": 4646, "2062696c6c": 4647, "6f6372": 4648, "2063616d657261": 4649, "20636f6e666964656e6365": 4650, "207061726b": 4651, "6f726f756768": 4652, "20677565737473": 4653, "206d6f746f72": 4654, "20636f6d7065746974696f6e": 4655, "207369676e73": 4656, "2072616365": 4657, "20696e646570656e64656e74": 4658, "20626167": 4659, "6273697465": 4660, "2050726f64756374": 4661, "205768697465": 4662, "61756768746572": 4663, "74696d65": 4664, "206772616e64": 4665, "204d6574": 4666, "2068617070656e73": 4667, "2077696e746572": 4668, "696379": 4669, "206c6561726e6564": 4670, "207461737465": 4671, "20636974697a": 4672, "2072657065": 4673, "207472696564": 4674, "207468616e6b73": 4675, "20656e61626c65": 4676, "616c64": 4677, "20616e696d616c73": 4678, "20746f77617264": 4679, "206469726563746f72": 4680, "2070726f66696c65": 4681, "205465786173": 4682, "2074686f7573616e6473": 4683, "69656e636573": 4684, "207761737465": 4685, "6c61": 4686, "20476f6f64": 4687, "69636f": 4688, "204c6f7264": 4689, "2063726973": 4690, "20636f6e73756d657273": 4691, "2076656869636c6573": 4692, "417265": 4693, "20666f6c6c6f776564": 4694, "20736d616c6c6572": 4695, "20636f6e74726962757465": 4696, "20696e666c75656e6365": 4697, "20646f75626c65": 4698, "20636f6d706f6e656e7473": 4699, "64726177": 4700, "2076696c6c": 4701, "2048656c": 4702, "726f6e74": 4703, "2064726f70": 4704, "206368616e67696e67": 4705, "20666565646261636b": 4706, "206d696c6c": 4707, "73656d62": 4708, "2050726f76": 4709, "206166666f726461626c65": 4710, "2063686172676573": 4711, "3735": 4712, "20656e67616765": 4713, "70686173": 4714, "206d6178696d756d": 4715, "207265736964656e7473": 4716, "2044697363": 4717, "207370656e64696e67": 4718, "20497473": 4719, "2043616d": 4720, "e2809c49": 4721, "207375676172": 4722, "206769726c73": 4723, "687573": 4724, "6b6e6f776e": 4725, "20656e676167656d656e74": 4726, "20686f6c69646179": 4727, "4162": 4728, "2050656f706c65": 4729, "617269616e": 4730, "206c65616473": 4731, "20506f7374": 4732, "20696e646963": 4733, "206f70656e696e67": 4734, "20537072": 4735, "20726f636b": 4736, "20667269656e646c79": 4737, "6865746963": 4738, "5448": 4739, "206f6e746f": 4740, "206d616a6f72697479": 4741, "20456475636174696f6e": 4742, "f09f": 4743, "61726765": 4744, "2077696e6e696e67": 4745, "20686f70": 4746, "6573746963": 4747, "2063686f6f73696e67": 4748, "207072656d69756d": 4749, "20416464": 4750, "446f6e": 4751, "2066756e64696e67": 4752, "61636b696e67": 4753, "206d756c7469": 4754, "206c61626f72": 4755, "2072656d696e64": 4756, "206465636f72": 4757, "206368656d6963616c": 4758, "20696e74656c6c6967": 4759, "2061636164656d6963": 4760, "206361726566756c6c79": 4761, "20736f6c6172": 4762, "206f7574646f6f72": 4763, "205761746572": 4764, "75676874": 4765, "206d696e696d756d": 4766, "204c696665": 4767, "2072657475726e6564": 4768, "20766974616c": 4769, "20666176": 4770, "207265636970": 4771, "20626567": 4772, "20666c75": 4773, "20416d617a6f6e": 4774, "207472656e6473": 4775, "20736c6f7473": 4776, "20656c6967": 4777, "206c6f636174696f6e73": 4778, "74696f6e": 4779, "206175746f6d61746963616c6c79": 4780, "20756e6974": 4781, "67616765": 4782, "20466c6f72": 4783, "207261706964": 4784, "2063617274": 4785, "206465636c": 4786, "67657279": 4787, "20686967686c69676874": 4788, "207365616d": 4789, "207175616e74": 4790, "206d6f746976": 4791, "20636f6e6669726d": 4792, "2073657875616c": 4793, "20536166": 4794, "6f757473": 4795, "2067617264656e": 4796, "2073746172": 4797, "206e616d6564": 4798, "20446576656c6f706d656e74": 4799, "2067756964616e6365": 4800, "205365637572697479": 4801, "417070": 4802, "206e616d6573": 4803, "333030": 4804, "206368616c6c656e67696e67": 4805, "657374796c65": 4806, "2072617265": 4807, "20666f72676574": 4808, "205354": 4809, "207363686564": 4810, "206769726c": 4811, "2066616d6f7573": 4812, "20647269766572": 4813, "206c656176696e67": 4814, "2073656c6563746564": 4815, "20696e74656772": 4816, "206164766973": 4817, "2072657475726e73": 4818, "3331": 4819, "2d646179": 4820, "2d70726f": 4821, "20647574": 4822, "205043": 4823, "206d6f766564": 4824, "20696e73747275": 4825, "2068617070656e6564": 4826, "20486f74": 4827, "206d6574616c": 4828, "2077696e65": 4829, "696e676572": 4830, "2050726f74": 4831, "2066756e6374696f6e73": 4832, "2065706973": 4833, "207768617465766572": 4834, "20617070656172616e6365": 4835, "20737469636b": 4836, "204368696e657365": 4837, "2064656c697665726564": 4838, "20646972656374696f6e": 4839, "756c617465": 4840, "4f4c": 4841, "204d656d": 4842, "20696e7374616e6365": 4843, "416363": 4844, "20636f6d6d656e7473": 4845, "20686f6d": 4846, "7072656e65": 4847, "2042616e6b": 4848, "6167657273": 4849, "2061636365737369626c65": 4850, "20636f72706f72617465": 4851, "617368696e67746f6e": 4852, "696e746572": 4853, "20627269676874": 4854, "696369616e73": 4855, "20736f6c65": 4856, "2077696665": 4857, "616d696c79": 4858, "74696373": 4859, "206b657074": 4860, "20616666696c69": 4861, "20636f6d706c": 4862, "61747572646179": 4863, "61706572": 4864, "20736576656e": 4865, "2064656274": 4866, "20416c74686f756768": 4867, "72657072656e65": 4868, "206578706c61696e": 4869, "636f6d6573": 4870, "69667473": 4871, "454e54": 4872, "62696e67": 4873, "20457374": 4874, "69746f72696e67": 4875, "69676974616c": 4876, "20666173746572": 4877, "204672656e6368": 4878, "20657874656e64": 4879, "456e": 4880, "20696e766573746f7273": 4881, "696a": 4882, "2054696d65": 4883, "20696e7465726e616c": 4884, "206563": 4885, "6f64696573": 4886, "20616e63": 4887, "20436c69636b": 4888, "20676174686572": 4889, "20636f6e76656e69656e74": 4890, "436f6e74": 4891, "68757369": 4892, "20626f77": 4893, "20646973636c": 4894, "2061757468656e74": 4895, "20696e766f6c766573": 4896, "206c616e647363617065": 4897, "20e2": 4898, "736579": 4899, "20726567756c61726c79": 4900, "2052656c": 4901, "2073696d706c": 4902, "20636c7562": 4903, "4441": 4904, "506c": 4905, "596573": 4906, "20636875726368": 4907, "69616e6365": 4908, "20636162": 4909, "2070726f6d7074": 4910, "46726f6d": 4911, "2042726974697368": 4912, "2070726573656e746564": 4913, "2050726f66657373": 4914, "206c61756e": 4915, "7a61": 4916, "6573746976616c": 4917, "20636976696c": 4918, "20746f706963": 4919, "6e6574": 4920, "2077726f7465": 4921, "20506f776572": 4922, "206d616e75666163747572696e67": 4923, "20687573": 4924, "20496d70": 4925, "205061756c": 4926, "6f726e6579": 4927, "2d6c65": 4928, "6669656c64": 4929, "206163636964656e74": 4930, "20636f6e73756d6572": 4931, "204879": 4932, "69706c": 4933, "206f6276": 4934, "2076616363": 4935, "2063697263756d7374616e636573": 4936, "207075": 4937, "20636f756c646e": 4938, "20636f6e7369646572696e67": 4939, "4f4d": 4940, "20666967757265": 4941, "207265636f726473": 4942, "20626f726e": 4943, "20656d657267656e6379": 4944, "206c75636b": 4945, "206170706c696564": 4946, "207665676574": 4947, "2063686172616374657273": 4948, "206f7065726174696f6e": 4949, "204972": 4950, "20696e74656e646564": 4951, "207069637475726573": 4952, "72656573": 4953, "2066616e": 4954, "4f6e6365": 4955, "706d": 4956, "5241": 4957, "206c6973746564": 4958, "20576879": 4959, "207375626d6974": 4960, "207365706172617465": 4961, "20e280a6": 4962, "206c6574746572": 4963, "f09d": 4964, "756c61746564": 4965, "536865": 4966, "2053697465": 4967, "61646f": 4968, "2074726565": 4969, "206c6f636b": 4970, "6c617373": 4971, "7072697365": 4972, "20656d6f74696f6e616c": 4973, "666c6f77": 4974, "6170746572": 4975, "20436173696e6f": 4976, "20706173736564": 4977, "2077616974696e67": 4978, "206d616368696e6573": 4979, "20617272616e6765": 4980, "204170706c65": 4981, "20776f726c6477696465": 4982, "20436f6e66": 4983, "63657074696f6e": 4984, "656c6c6f77": 4985, "52656164": 4986, "2072697365": 4987, "207570677261": 4988, "20686f73706974616c": 4989, "2077696c6c696e67": 4990, "313936": 4991, "696e61746564": 4992, "756d616e": 4993, "20656d70686173": 4994, "79626572": 4995, "206d65616e74": 4996, "20696e667261737472756374757265": 4997, "20696d70726f766564": 4998, "206d616e61676572": 4999, "6c6573736c79": 5000, "63696f7573": 5001, "2070726f746563746564": 5002, "20737061636573": 5003, "2063616c63756c": 5004, "2061727469737473": 5005, "20594f55": 5006, "207265737472696374": 5007, "20646574656374": 5008, "20726f7574696e65": 5009, "6f726573": 5010, "6f6265": 5011, "20687964": 5012, "756974": 5013, "696d6174656c79": 5014, "20656475636174696f6e616c": 5015, "616b657273": 5016, "2073706f7274": 5017, "20706f737473": 5018, "20417474": 5019, "20436f6d6d697373696f6e": 5020, "20496e76657374": 5021, "e2809d2e": 5022, "2073686170": 5023, "616e676573": 5024, "2073657473": 5025, "2063617273": 5026, "676d656e74": 5027, "20656e7468757369": 5028, "20496e73746974757465": 5029, "206e6f72": 5030, "20676f6e65": 5031, "696e6174696f6e73": 5032, "204949": 5033, "20d0": 5034, "20636f6e666c6963": 5035, "2073616e64": 5036, "726162": 5037, "205075626c6963": 5038, "2053756e646179": 5039, "207363616c65": 5040, "436f6e": 5041, "2067656e65726174696f6e": 5042, "20737570706f7274696e67": 5043, "206e65676174697665": 5044, "636f686f6c": 5045, "206d61696e7461696e696e67": 5046, "20436170": 5047, "2075706461746564": 5048, "2d4d": 5049, "206c65676973": 5050, "20656c696d696e": 5051, "206c6561766573": 5052, "2070616c": 5053, "204d6f6e646179": 5054, "2073756d6d": 5055, "2e6d": 5056, "69657273": 5057, "20617274697374": 5058, "207061727469636970616e7473": 5059, "20636f6c6c61626f726174696f6e": 5060, "2057617368696e67746f6e": 5061, "20555341": 5062, "20626f756e64": 5063, "2063656e74757279": 5064, "2065786369746564": 5065, "206569676874": 5066, "2062726f77736572": 5067, "20616e797768657265": 5068, "20536565": 5069, "72616365": 5070, "2070726179": 5071, "20637265616d": 5072, "2074687573": 5073, "20636861696e": 5074, "20636c6561726c79": 5075, "204c696b65": 5076, "206672656564": 5077, "20736561": 5078, "2073756974": 5079, "20636175736573": 5080, "20636c6173736573": 5081, "4c43": 5082, "646573": 5083, "6f736973": 5084, "20747269616c": 5085, "206561727468": 5086, "20446563": 5087, "206d616e61676564": 5088, "20756e6c657373": 5089, "6f6f7273": 5090, "616c6c73": 5091, "6f6c6573": 5092, "20616c69676e": 5093, "61656c": 5094, "204a65": 5095, "207265647563696e67": 5096, "4243": 5097, "20626c656e64": 5098, "6d65726365": 5099, "616e746963": 5100, "206675656c": 5101, "20466f756e646174696f6e": 5102, "43616e": 5103, "206d656e74": 5104, "2053616d": 5105, "736565": 5106, "2061727469636c6573": 5107, "20686176656e": 5108, "20707265736964656e74": 5109, "20726562": 5110, "206c6f616e73": 5111, "6f6e6473": 5112, "6e656c": 5113, "2074656c65": 5114, "20646573697265": 5115, "207061747465726e73": 5116, "2062617474657279": 5117, "2066616d696c696172": 5118, "696c64696e67": 5119, "206d656d6f7279": 5120, "207465657468": 5121, "20526576696577": 5122, "20726f6f6d73": 5123, "20646573637269626564": 5124, "20696365": 5125, "206a6f79": 5126, "20636f6d706c69616e6365": 5127, "4172": 5128, "736f6674": 5129, "796e": 5130, "686162": 5131, "696c6564": 5132, "2057656273697465": 5133, "726579": 5134, "5052": 5135, "2073686f74": 5136, "206578636c7573697665": 5137, "2063726f77": 5138, "20426974": 5139, "726974696f6e": 5140, "2052657075626c6963": 5141, "4e6577": 5142, "2070726570617265": 5143, "206372656174696f6e": 5144, "206d616e6e6572": 5145, "207363656e65": 5146, "20657863657373": 5147, "2054616b65": 5148, "206e6f746573": 5149, "206964656e74697479": 5150, "206a6f75726e616c": 5151, "2070726f7465": 5152, "204d6163": 5153, "20736563726574": 5154, "207769746864726177": 5155, "205472756d70": 5156, "204d61696e": 5157, "6f736974696f6e": 5158, "6c7564696e67": 5159, "4e6f74": 5160, "207265676973746572": 5161, "20737572766579": 5162, "2d50": 5163, "20616964": 5164, "20736572766572": 5165, "696464656e": 5166, "204368696c64": 5167, "20416476": 5168, "756d73": 5169, "2074686f7567687473": 5170, "66616374696f6e": 5171, "7573696f6e": 5172, "2053696e67": 5173, "6f6573": 5174, "206f757273656c766573": 5175, "207265736f75726365": 5176, "20666163696c6974": 5177, "207472656e64": 5178, "206372616674": 5179, "626564": 5180, "20747261636b696e67": 5181, "2066696e6973686564": 5182, "204b656570": 5183, "206163636f6d706c": 5184, "666c": 5185, "206e757273": 5186, "20636974696573": 5187, "6f73656e": 5188, "20436c617373": 5189, "6d6573": 5190, "2074686f726f756768": 5191, "20437572": 5192, "20696e737472756374696f6e73": 5193, "20466c6f72696461": 5194, "20726574697265": 5195, "20696d70726f76696e67": 5196, "20766974": 5197, "416e6f74686572": 5198, "204f7074": 5199, "e280a60a": 5200, "636b6e6f77": 5201, "2d6f6c64": 5202, "20496e7374616772616d": 5203, "204f70656e": 5204, "206170706c696361626c65": 5205, "20466f7265": 5206, "4947": 5207, "204576": 5208, "205265616c": 5209, "2070616972": 5210, "20737461727473": 5211, "206c697374656e": 5212, "2d42": 5213, "686f70": 5214, "20696e76656e74": 5215, "20636f6c6c65": 5216, "2073706563696573": 5217, "2057696e646f7773": 5218, "206d6f6e74686c79": 5219, "20656c656374726f6e6963": 5220, "2070726f63656475726573": 5221, "20636f6e74657874": 5222, "2070617373776f7264": 5223, "2070726576696f75736c79": 5224, "20737072696e67": 5225, "75616c697479": 5226, "20636f6e63656e74": 5227, "20636f6e73657175": 5228, "20446f776e": 5229, "6f696e": 5230, "206f6e676f696e67": 5231, "6f6d616e": 5232, "204a6577": 5233, "6f636b696e67": 5234, "20737465656c": 5235, "20656e747279": 5236, "204461766964": 5237, "20447572696e67": 5238, "20546f70": 5239, "204944": 5240, "2073686f7763": 5241, "20666163746f72": 5242, "20726576656e7565": 5243, "207765656b656e64": 5244, "726f72": 5245, "666f7274756e6174656c79": 5246, "5041": 5247, "205465726d": 5248, "6f6c7665": 5249, "69726174696f6e": 5250, "20726567697374726174696f6e": 5251, "20646973617070": 5252, "20476f7665726e6d656e74": 5253, "726965": 5254, "20696e737469747574696f6e73": 5255, "20686f6e657374": 5256, "2046696e64": 5257, "656c657373": 5258, "2066696c6c6564": 5259, "206f70656e6564": 5260, "746f70": 5261, "7269616765": 5262, "206d616e6167696e67": 5263, "20506572736f6e616c": 5264, "204d61": 5265, "20616476616e7461676573": 5266, "206162736f6c7574656c79": 5267, "2070726f636564757265": 5268, "205361747572646179": 5269, "20536369656e6365": 5270, "756767": 5271, "207370656374": 5272, "20456c656374": 5273, "206d6f697374": 5274, "2063757474696e67": 5275, "4348": 5276, "207265636f76657279": 5277, "202d2d": 5278, "2068757362616e64": 5279, "20636f6d706c6963": 5280, "20777777": 5281, "20547572": 5282, "20706c6173746963": 5283, "61676f": 5284, "63686f6c617273": 5285, "206b6e6f7773": 5286, "20756e6976657273697479": 5287, "2050726f6a656374": 5288, "2070726f7370656374": 5289, "206c6963656e7365": 5290, "2073657373696f6e73": 5291, "20666c6174": 5292, "20546f646179": 5293, "2065646765": 5294, "20707265666572656e636573": 5295, "6f6d6574": 5296, "2068656172696e67": 5297, "206472616d": 5298, "206c6966657374796c65": 5299, "20436875726368": 5300, "20537570706f7274": 5301, "2069636f6e": 5302, "6d656e": 5303, "4d6f7265": 5304, "6964657273": 5305, "78696d6174656c79": 5306, "2053616c": 5307, "69636b656e": 5308, "4c6574": 5309, "206c697175": 5310, "20726169736564": 5311, "6c617374": 5312, "726f73": 5313, "2076696272": 5314, "204c656164": 5315, "20636f6e73656e74": 5316, "20657363": 5317, "206361746368": 5318, "2764": 5319, "61726b73": 5320, "206e6f76656c": 5321, "6f7269616c": 5322, "616d696e67": 5323, "2072656769737465726564": 5324, "2043454f": 5325, "205374617274": 5326, "7961": 5327, "616473": 5328, "20656e6162": 5329, "206d656469756d": 5330, "20656c656d656e74": 5331, "65706572": 5332, "20706c617973": 5333, "206c6963656e73": 5334, "20736c696768746c79": 5335, "20737472617465676963": 5336, "20536f6d": 5337, "206465637265": 5338, "20636f6e766572736174696f6e": 5339, "2064656361646573": 5340, "2069676e": 5341, "20656767": 5342, "2d7368": 5343, "207065727370656374697665": 5344, "20766f6c756e7465": 5345, "2061636b6e6f77": 5346, "3438": 5347, "2072657365617263": 5348, "2077616c6b696e67": 5349, "6f746963": 5350, "206a756d70": 5351, "20737461746564": 5352, "207765616b": 5353, "207468656d65": 5354, "20726563656976696e67": 5355, "446573": 5356, "20446574": 5357, "2064657370697465": 5358, "2072656e6577": 5359, "61727479": 5360, "6f756e646572": 5361, "20416e6765": 5362, "64656e": 5363, "20666f7374": 5364, "205370656369616c": 5365, "2070616e656c": 5366, "2043687269737469616e": 5367, "20436f6d6d6974": 5368, "20636f6e74656d": 5369, "204f62": 5370, "6b61": 5371, "205468657265666f7265": 5372, "20696e647573747269616c": 5373, "2070726564696374": 5374, "20666163696c697479": 5375, "206578706563746174696f6e73": 5376, "20706179696e67": 5377, "2073746f726573": 5378, "4f57": 5379, "2072756c65": 5380, "6f6f70": 5381, "207472616e736974696f6e": 5382, "20616e696d616c": 5383, "207472656573": 5384, "20436c65616e": 5385, "204d616c": 5386, "6c6f636b": 5387, "206d656e75": 5388, "20726174": 5389, "204c6567": 5390, "206d65737361676573": 5391, "204d6167": 5392, "20446566": 5393, "2062726f74686572": 5394, "20617564696f": 5395, "6c657473": 5396, "20657870656e736573": 5397, "20627265617468": 5398, "20616e7869657479": 5399, "2064697374696e6374": 5400, "796d": 5401, "6f6c6963": 5402, "6f76696e67": 5403, "206272696566": 5404, "20666f726d6174": 5405, "2053756e": 5406, "697874": 5407, "6f6e6f6d": 5408, "20436f6e67": 5409, "20617070726f766564": 5410, "616d62": 5411, "2073657276696e67": 5412, "206672657175656e746c79": 5413, "2062697264": 5414, "3332": 5415, "6869": 5416, "706f74": 5417, "206d6f757468": 5418, "20554e": 5419, "20436f6d6d756e697479": 5420, "20466f6f64": 5421, "206461746162": 5422, "2054776974746572": 5423, "206167656e74": 5424, "20636172626f6e": 5425, "6d6f7370": 5426, "20427265": 5427, "20636f6d706172": 5428, "2072657374617572616e74": 5429, "20636f6f7264": 5430, "204950": 5431, "207261696e": 5432, "20436c7562": 5433, "2070757474696e67": 5434, "2073697a6573": 5435, "72697074": 5436, "206475": 5437, "206669656c6473": 5438, "20656e676167696e67": 5439, "61736572": 5440, "756c6564": 5441, "756c74757265": 5442, "20666f6f6473": 5443, "20756e73": 5444, "206d6f6e69746f72": 5445, "2d72": 5446, "2048616c6c": 5447, "756d696e": 5448, "2061646d696e697374726174696f6e": 5449, "20746f77": 5450, "206166666563746564": 5451, "2073656e696f72": 5452, "2072656164657273": 5453, "20737769746368": 5454, "726f6c6c6564": 5455, "206361706162696c6974696573": 5456, "20666f6f7462616c6c": 5457, "756c7479": 5458, "20736e6f77": 5459, "2061707065617273": 5460, "20636974697a656e73": 5461, "54756265": 5462, "204a6572": 5463, "20706f6463617374": 5464, "20537562": 5465, "20696e766f6c7665": 5466, "4241": 5467, "2073686f77696e67": 5468, "3fe2809d": 5469, "4b65": 5470, "20616d62": 5471, "20416e64726f6964": 5472, "20656c6576": 5473, "20746f70696373": 5474, "206b6e6f77696e67": 5475, "20656e7472657072656e65": 5476, "20636f726e6572": 5477, "206576656e696e67": 5478, "2d41": 5479, "207469676874": 5480, "2072696465": 5481, "20656174696e67": 5482, "20556b": 5483, "20636c6f736564": 5484, "20526f6164": 5485, "206572": 5486, "20657863657074696f6e616c": 5487, "2073706c": 5488, "206d6f6e69746f72696e67": 5489, "4d65": 5490, "2061736b696e67": 5491, "20426179": 5492, "207061727469636970617465": 5493, "20656e7465727461696e6d656e74": 5494, "6170657273": 5495, "2067656e6572617465": 5496, "204f6e6c79": 5497, "726f6f6d73": 5498, "756d626572": 5499, "20756e697473": 5500, "20686f7573696e67": 5501, "4341": 5502, "6572766573": 5503, "206d696e6f72": 5504, "20526f62": 5505, "20666f756e646174696f6e": 5506, "313530": 5507, "20456e67696e65": 5508, "4465": 5509, "20696e6372656469626c65": 5510, "2061726775": 5511, "20636f6d62696e6564": 5512, "205468726f756768": 5513, "20736572766573": 5514, "6f7461": 5515, "2061776172656e657373": 5516, "207465616368657273": 5517, "4163636f7264696e67": 5518, "207472616e7370": 5519, "206665656c73": 5520, "206a61636b": 5521, "20596573": 5522, "206272696e67696e67": 5523, "4576657279": 5524, "207374616e6473": 5525, "20476c6f62616c": 5526, "2071756172746572": 5527, "20457870": 5528, "20666f6c64": 5529, "205465616d": 5530, "206465706172746d656e74": 5531, "82ac": 5532, "2065787465726e616c": 5533, "20616c62": 5534, "204f7267616e": 5535, "205269766572": 5536, "72657370": 5537, "616e7461": 5538, "207472616e73706f72746174696f6e": 5539, "2073746f": 5540, "206d697373696e67": 5541, "207769746e657373": 5542, "7265617465": 5543, "204d6578": 5544, "20636f6c6f7572": 5545, "20736974756174696f6e73": 5546, "73746f6e": 5547, "2064657374696e6174696f6e": 5548, "20c3": 5549, "206167656e63696573": 5550, "2074726561746d656e7473": 5551, "2076617374": 5552, "206c61756e63686564": 5553, "20506574": 5554, "207761746368696e67": 5555, "2053696c": 5556, "20666c6176": 5557, "205374616e64": 5558, "e2809c546865": 5559, "6f6d62": 5560, "2064697363757373696f6e": 5561, "20756e66": 5562, "20796f757468": 5563, "20737570706f72746564": 5564, "206469616d": 5565, "2053656e": 5566, "756c6174696f6e73": 5567, "204163636f7264696e67": 5568, "2072657075746174696f6e": 5569, "2066726565646f6d": 5570, "206465736b": 5571, "206f63636173696f6e": 5572, "20466f7274": 5573, "20706c7567": 5574, "20636f6e666967": 5575, "697374616e": 5576, "207261697365": 5577, "2d72656c61746564": 5578, "20616767": 5579, "2067756964656c696e6573": 5580, "2064796e616d6963": 5581, "6c6f72": 5582, "2070726f666974": 5583, "206d6f6465": 5584, "20646f6f7273": 5585, "6f636174696f6e": 5586, "696f7273": 5587, "20706f7274666f6c": 5588, "53746570": 5589, "206d696c6573": 5590, "2066616e746173746963": 5591, "206675726e6974757265": 5592, "3333": 5593, "2073757267657279": 5594, "20696e7374616c6c6564": 5595, "207765616c7468": 5596, "20706172746e657273686970": 5597, "207374756e6e696e67": 5598, "207465737473": 5599, "6f6c76696e67": 5600, "20737472656574": 5601, "61726174696f6e": 5602, "206578616d706c6573": 5603, "206164766f63": 5604, "206e65696768626f72": 5605, "2a2a": 5606, "2072656475636564": 5607, "6561726564": 5608, "206f706572617465": 5609, "206c61796572": 5610, "4d616e79": 5611, "76656e74696f6e": 5612, "20746f74616c6c79": 5613, "2072656163686564": 5614, "206b6964": 5615, "6961626c65": 5616, "6e65726779": 5617, "2062656c6f6e67": 5618, "20636c696d": 5619, "616464": 5620, "206c69676874696e67": 5621, "2063686f73656e": 5622, "20736f696c": 5623, "4154494f4e": 5624, "20696e74726f6475636564": 5625, "204166726963616e": 5626, "206164756c7473": 5627, "20546563686e6f6c6f6779": 5628, "2065617365": 5629, "20707265676e": 5630, "20656e61626c6573": 5631, "20696e766573746967": 5632, "20636f6e7374616e746c79": 5633, "204d65646961": 5634, "20666c657869626c65": 5635, "2052696368": 5636, "204c696d": 5637, "2061746d6f7370": 5638, "20737572726f756e64696e67": 5639, "207265706c6163656d656e74": 5640, "20736174697366616374696f6e": 5641, "20646973747269627574696f6e": 5642, "7465726564": 5643, "20436f6e74616374": 5644, "2076696374696d": 5645, "20456e676c616e64": 5646, "204c6174": 5647, "206e6574776f726b73": 5648, "20746869636b": 5649, "2d6265696e67": 5650, "2064697374616e6365": 5651, "6e69676874": 5652, "7264": 5653, "2073656d": 5654, "2048697374": 5655, "20656d706c6f796d656e74": 5656, "206576656e7475616c6c79": 5657, "2074657272": 5658, "6f6e61": 5659, "207375627374616e74": 5660, "6f75746865726e": 5661, "206f63637570": 5662, "697070": 5663, "206c7578757279": 5664, "20736b696c6c": 5665, "4946": 5666, "20726577617264": 5667, "206f7267616e6963": 5668, "20636f6e73697374656e74": 5669, "206f7574636f6d6573": 5670, "2e29": 5671, "2050686f74": 5672, "20656e67696e656572696e67": 5673, "706573": 5674, "20736372": 5675, "206472696e6b": 5676, "20726561736f6e61626c65": 5677, "206e65676f74": 5678, "69747a": 5679, "6165": 5680, "656e73696f6e73": 5681, "206d616c65": 5682, "2043616c6c": 5683, "20736576657265": 5684, "20656c6567": 5685, "204469676974616c": 5686, "20706f74656e7469616c6c79": 5687, "206379636c65": 5688, "206b696e6473": 5689, "206672616d65": 5690, "20756e6976657273": 5691, "2068756e6472656473": 5692, "204153": 5693, "2063617465676f7279": 5694, "2063617374": 5695, "756374696f6e": 5696, "69726d73": 5697, "206d617474657273": 5698, "6264": 5699, "7761746572": 5700, "206661696c757265": 5701, "20536f6c": 5702, "207465616368": 5703, "20636f6d70656e73": 5704, "70617373": 5705, "2049736c616e64": 5706, "20436f6c6f72": 5707, "20426967": 5708, "696c6c61": 5709, "696e6e696e67": 5710, "207265666572656e6365": 5711, "20686f757365686f6c64": 5712, "20736176696e6773": 5713, "6c697374": 5714, "204a616d6573": 5715, "75696e65": 5716, "205468616e6b": 5717, "20636f6e666964656e74": 5718, "20736f756e6473": 5719, "2061726d": 5720, "757073": 5721, "2066656d616c65": 5722, "4f766572": 5723, "20646f6c6c617273": 5724, "20737570706f727473": 5725, "20637269736973": 5726, "67657273": 5727, "20646572": 5728, "20706572666f726d6564": 5729, "207377696d": 5730, "206f70696e696f6e": 5731, "2d7365": 5732, "2062696b65": 5733, "2074726967": 5734, "207065726d616e": 5735, "2064656e74616c": 5736, "20706f737369626c79": 5737, "2041726368": 5738, "206368616e6e656c": 5739, "206469616c": 5740, "20706572736f6e616c697a6564": 5741, "20616c636f686f6c": 5742, "206275726e": 5743, "2041636164": 5744, "6f736d": 5745, "206672616d6577": 5746, "207468726f77": 5747, "2061646473": 5748, "207265706f7274696e67": 5749, "20457874": 5750, "2072656d6f766564": 5751, "20696e6475737472696573": 5752, "20616476656e74757265": 5753, "e284": 5754, "756c6e6572": 5755, "2062757379": 5756, "4d6f7374": 5757, "204d6f756e74": 5758, "20506c7573": 5759, "20596f7554756265": 5760, "2073757266": 5761, "20766f6c756d65": 5762, "2073706f": 5763, "20747261696c": 5764, "206e65636b": 5765, "206772656174657374": 5766, "20636f6e666572656e6365": 5767, "2077696e646f7773": 5768, "2040": 5769, "6f636b6574": 5770, "20436f6e6e656374": 5771, "20617070726f78696d6174656c79": 5772, "2048617665": 5773, "2077686f6d": 5774, "2074656d706c": 5775, "20696d70726f76656d656e74": 5776, "2d6368": 5777, "6772": 5778, "2054657374": 5779, "6f637572": 5780, "206368616e636573": 5781, "2073706f6e73": 5782, "2061707072656369617465": 5783, "205072657373": 5784, "20626f6174": 5785, "206d6f6d656e7473": 5786, "6574696d65": 5787, "2043656e7472616c": 5788, "65646e6573": 5789, "205245": 5790, "757273646179": 5791, "66617374": 5792, "2043617264": 5793, "2072756e73": 5794, "6f6d61": 5795, "205275737369616e": 5796, "61746865": 5797, "657175": 5798, "2043616d70": 5799, "20756e77": 5800, "2064656c69676874": 5801, "20696e74657266616365": 5802, "20617574686f72697479": 5803, "207374796c6573": 5804, "7265656e73": 5805, "20666f7274": 5806, "6365616e": 5807, "20414d": 5808, "2073686f776564": 5809, "207375636365737366756c6c79": 5810, "6372696265": 5811, "61747572616c6c79": 5812, "206672756974": 5813, "2061737369676e": 5814, "20707572636861736564": 5815, "207374726574": 5816, "2053746172": 5817, "20706572666563746c79": 5818, "207472616e73616374696f6e73": 5819, "726f79": 5820, "20547265": 5821, "2067757973": 5822, "3535": 5823, "74657279": 5824, "2063726561746573": 5825, "4343": 5826, "20696e737069726564": 5827, "4147": 5828, "e2809c5765": 5829, "206a6f696e6564": 5830, "206f6464": 5831, "204d696c": 5832, "2063617272696564": 5833, "2077697265": 5834, "20616e6e6f756e6365": 5835, "204163636f756e74": 5836, "4952": 5837, "204a6f7572": 5838, "77697468": 5839, "2062616e": 5840, "20536368": 5841, "2d636f6d": 5842, "2067656172": 5843, "6f67726170": 5844, "20636f6c6c6563746564": 5845, "20536574": 5846, "2074656368": 5847, "5072657373": 5848, "2046697265": 5849, "e284a2": 5850, "206d696e757465": 5851, "20426c7565": 5852, "20736369656e7469666963": 5853, "206a75": 5854, "656e64696e67": 5855, "526573": 5856, "207068696c": 5857, "20456e746572": 5858, "206e61766967617465": 5859, "206d6f73746c79": 5860, "206c696272617279": 5861, "20636f6d6d616e64": 5862, "2070726f63656564": 5863, "20677579": 5864, "756573646179": 5865, "20656c696769626c65": 5866, "20726f6d": 5867, "626f7572": 5868, "20766572736174": 5869, "2066756e6374696f6e616c697479": 5870, "20686973746f726963616c": 5871, "72696373": 5872, "20436f6d6d6974746565": 5873, "207369676e6564": 5874, "2072696e67": 5875, "206368616972": 5876, "206265616368": 5877, "206163636570746564": 5878, "2075706c": 5879, "207061636b6167696e67": 5880, "2053746570": 5881, "50686f6e65": 5882, "6372616674": 5883, "204d617279": 5884, "20726573756c74696e67": 5885, "2068697265": 5886, "2062656c696566": 5887, "797374656d": 5888, "726f6164": 5889, "206c6162656c": 5890, "206275696c64696e6773": 5891, "206461756768746572": 5892, "20686f7374696e67": 5893, "204d61726b6574696e67": 5894, "756365": 5895, "2067756e": 5896, "20436f6e7374": 5897, "20776f756c646e": 5898, "204d617274": 5899, "206b65657073": 5900, "20617468": 5901, "20636f6f6b696e67": 5902, "205361": 5903, "7269616e": 5904, "2073746174696f6e": 5905, "20696e746567726174696f6e": 5906, "6c696665": 5907, "63656c6572": 5908, "6f7264657273": 5909, "2061646d696e69737472": 5910, "4446": 5911, "204261636b": 5912, "2063616e6e": 5913, "207665746572": 5914, "20636c696e6963616c": 5915, "4472": 5916, "436865": 5917, "206d6f727467616765": 5918, "20617661696c6162696c697479": 5919, "20416e6e": 5920, "6464656e": 5921, "204372": 5922, "2073656174": 5923, "207461786573": 5924, "726970": 5925, "20626174746c65": 5926, "617270": 5927, "72657465": 5928, "20426f6f6b": 5929, "2046756e64": 5930, "616363": 5931, "20416363657373": 5932, "204e4f54": 5933, "204d617474": 5934, "2073616e": 5935, "20636f76657273": 5936, "20496e7374656164": 5937, "207673": 5938, "65747465": 5939, "706563746564": 5940, "206d65646963696e65": 5941, "207265636f6d6d656e646174696f6e73": 5942, "616974": 5943, "2073687574": 5944, "2070726963696e67": 5945, "20646570656e6473": 5946, "206170706f696e746d656e74": 5947, "204f706572": 5948, "20747261696e6564": 5949, "2064726976657273": 5950, "2064697368": 5951, "65646e6573646179": 5952, "6d61726b": 5953, "6f737369626c65": 5954, "206c6967687473": 5955, "20686f6c6473": 5956, "2074656163686572": 5957, "616d70696f6e73": 5958, "204d61726b": 5959, "6f72746865726e": 5960, "204c6162": 5961, "6574686572": 5962, "20696e746572696f72": 5963, "2d54": 5964, "204d6f74": 5965, "20646f756274": 5966, "20666f72636573": 5967, "20746561": 5968, "204c6f75": 5969, "206775657373": 5970, "20496e64757374": 5971, "20636f6e737472756374": 5972, "207265636f676e697a6564": 5973, "20727562": 5974, "204c69676874": 5975, "20696e6a7572696573": 5976, "2070726563697365": 5977, "20666c65": 5978, "2046616d696c79": 5979, "7265656d656e74": 5980, "20746563686e69717565": 5981, "2076696f6c656e6365": 5982, "627265": 5983, "2076656e": 5984, "20666c65786962696c697479": 5985, "726174696e67": 5986, "206b696c6c": 5987, "20726563697065": 5988, "206368656170": 5989, "20437573746f6d6572": 5990, "2073756464656e": 5991, "204f66666963": 5992, "20726f6f74": 5993, "206578706f73757265": 5994, "206d61696c": 5995, "206d61676e": 5996, "206572726f72": 5997, "6e6f": 5998, "61626574": 5999, "20737065616b696e67": 6000, "756d6d696573": 6001, "696e6174696e67": 6002, "206465616c73": 6003, "3935": 6004, "6f72746572": 6005, "41626f7574": 6006, "617370": 6007, "e28098": 6008, "20666f72657374": 6009, "206669746e657373": 6010, "4e41": 6011, "20696e76657374696e67": 6012, "206661766f7572": 6013, "69617465": 6014, "20636f6f706572": 6015, "207374616b65": 6016, "205468616e6b73": 6017, "776569676874": 6018, "696e69": 6019, "6f736573": 6020, "6f6761": 6021, "2050726976": 6022, "68616e": 6023, "20666c61766f72": 6024, "7572746865726d6f7265": 6025, "20726f74": 6026, "2076756c6e6572": 6027, "2070686f746f6772617068": 6028, "726164": 6029, "204d697373": 6030, "206e6f746564": 6031, "204f68": 6032, "204d65646963616c": 6033, "20686f6c64696e67": 6034, "206173736573736d656e74": 6035, "204352": 6036, "20686569676874": 6037, "20636f70": 6038, "697267696e": 6039, "20636c6f73656c79": 6040, "6c657465": 6041, "2873": 6042, "343030": 6043, "726573736564": 6044, "20636f6d6d756e6963617465": 6045, "2067656e75696e65": 6046, "20527573736961": 6047, "616469616e": 6048, "205068696c": 6049, "496e64": 6050, "2041646d696e": 6051, "20696e63726561736573": 6052, "205472757374": 6053, "20556e696f6e": 6054, "206d6170": 6055, "2048616d": 6056, "204555": 6057, "2064656c6963696f7573": 6058, "20656e666f726365": 6059, "20696c6c757374": 6060, "204964": 6061, "20636f6e6e656374696f6e73": 6062, "426c": 6063, "616b6564": 6064, "2d7468": 6065, "2e6c617374": 6066, "205369676e": 6067, "2064656c6179": 6068, "2073706972697475616c": 6069, "2074756e": 6070, "726f63": 6071, "207265746972656d656e74": 6072, "686f6c64657273": 6073, "2e6c6173746e616d65": 6074, "204d616e61676572": 6075, "2064657369726564": 6076, "2070757263686173696e67": 6077, "204765726d616e79": 6078, "2061757468656e746963": 6079, "20426974636f696e": 6080, "696768746572": 6081, "206d616c": 6082, "6964656f": 6083, "5443": 6084, "20536572": 6085, "204265666f7265": 6086, "207175696574": 6087, "206368617274": 6088, "204c616b65": 6089, "204d6963726f736f6674": 6090, "6966696573": 6091, "756c747572616c": 6092, "20726573697374616e6365": 6093, "2073746f6e65": 6094, "20646973636f7665726564": 6095, "206d656d62657273686970": 6096, "20696e666c75656e63": 6097, "20636c6f736572": 6098, "207375627374616e7469616c": 6099, "204d6173746572": 6100, "6666656374697665": 6101, "7265646974": 6102, "206d65616c": 6103, "20666c69676874": 6104, "206d656574696e6773": 6105, "2069736c616e64": 6106, "2064616d61676564": 6107, "20546f72": 6108, "20696e66656374": 6109, "656168": 6110, "204b6f7265": 6111, "20576f6d656e": 6112, "313935": 6113, "204c6f6f6b": 6114, "72756d": 6115, "20696e707574": 6116, "20706f7274666f6c696f": 6117, "6f756e746572": 6118, "20666163696e67": 6119, "207265736561726368657273": 6120, "2067726f776e": 6121, "6172696f": 6122, "7573686564": 6123, "2061657374": 6124, "2043657274": 6125, "20616e7377657273": 6126, "20657069736f6465": 6127, "20517565": 6128, "20626f64696573": 6129, "2073686f6573": 6130, "20726567696f6e616c": 6131, "206964656e746966696564": 6132, "20656e746972656c79": 6133, "4941": 6134, "2047656e": 6135, "676f72": 6136, "204561727468": 6137, "2062656e6566696369616c": 6138, "206167656e7473": 6139, "207072696e6369706c6573": 6140, "5365": 6141, "206162736f72": 6142, "204175737472616c69616e": 6143, "5375": 6144, "2066756e6374696f6e616c": 6145, "2d616e64": 6146, "65726174696f6e": 6147, "696369616e": 6148, "62657267": 6149, "2064657465726d696e6564": 6150, "207265636f676e697a65": 6151, "2077616c6c73": 6152, "206465707468": 6153, "20617574686f726974696573": 6154, "20427564": 6155, "20616e7469636970": 6156, "206669786564": 6157, "20746f6e": 6158, "206576657279646179": 6159, "207265616c697a65": 6160, "206d617373697665": 6161, "204c6f6e67": 6162, "2061746d6f737068657265": 6163, "20416d65726963616e73": 6164, "2070726f6f66": 6165, "20706f6c6c": 6166, "4f43": 6167, "2073656e736974697665": 6168, "20636f6e76656e69656e6365": 6169, "4f50": 6170, "75656c": 6171, "20546f7572": 6172, "207669736974696e67": 6173, "20576f6f64": 6174, "656c636f6d65": 6175, "2077617272616e7479": 6176, "67656e74": 6177, "2064696e6e6572": 6178, "20657874656e646564": 6179, "206372696d": 6180, "205765737465726e": 6181, "20696e6372656173696e676c79": 6182, "3334": 6183, "207374696d": 6184, "2074727573746564": 6185, "20696d6d656469617465": 6186, "627574": 6187, "7365637574": 6188, "20746f756768": 6189, "6c656172": 6190, "6966696369616c": 6191, "207075727375": 6192, "2062726f6b656e": 6193, "4d50": 6194, "20526566": 6195, "2072656c696566": 6196, "5341": 6197, "69657374": 6198, "204e6967": 6199, "20626967676572": 6200, "617a696e65": 6201, "2068756e74": 6202, "20427572": 6203, "20736861726573": 6204, "206d657265": 6205, "206c696e6b6564": 6206, "206f6666696369616c73": 6207, "7a656e": 6208, "2063616c6c696e67": 6209, "20417564": 6210, "20736163": 6211, "20436174": 6212, "20696e7465677261746564": 6213, "20536f6674": 6214, "20756e61626c65": 6215, "2064616e6765726f7573": 6216, "2073657175": 6217, "204578706c": 6218, "20706572736f6e616c6c79": 6219, "2064696d": 6220, "20636c6172": 6221, "3635": 6222, "726167": 6223, "204e46": 6224, "206d656174": 6225, "206c6971756964": 6226, "3338": 6227, "206465706c6f79": 6228, "656c696e65": 6229, "20636f617374": 6230, "2e43": 6231, "20697373756564": 6232, "206c696162696c697479": 6233, "656479": 6234, "20666c6f77657273": 6235, "696174": 6236, "20626567696e73": 6237, "2076696272616e74": 6238, "53696e6365": 6239, "204a6170616e657365": 6240, "204d6164": 6241, "616374697665": 6242, "206173736574": 6243, "20706f73746564": 6244, "667473": 6245, "61747572696e67": 6246, "20706f736974696f6e73": 6247, "6c6967687473": 6248, "205269676874": 6249, "20696c": 6250, "5363": 6251, "2063616e64696461746573": 6252, "6f6c7574696f6e73": 6253, "79657273": 6254, "6974616765": 6255, "2064616e6365": 6256, "205573696e67": 6257, "207374616e64696e67": 6258, "6b6179": 6259, "6964656e": 6260, "496e74": 6261, "206472756773": 6262, "2041736961": 6263, "206d616e756661637475726572": 6264, "206368616e6e656c73": 6265, "697573": 6266, "206d7574": 6267, "20636f6d6d697373696f6e": 6268, "71756972": 6269, "204372656174": 6270, "20626f6f6b696e67": 6271, "20636f6e647563746564": 6272, "4669727374": 6273, "204d617373": 6274, "6f74686573": 6275, "204e6574776f726b": 6276, "2076656e64": 6277, "20436f6465": 6278, "204d656c": 6279, "2d44": 6280, "20426572": 6281, "2042696c6c": 6282, "20656c656374726963616c": 6283, "207265717565737473": 6284, "616c61": 6285, "20426f7468": 6286, "2041626f7574": 6287, "20656e646564": 6288, "205061727479": 6289, "7261696e65": 6290, "207075626c697368": 6291, "20696e766573746d656e7473": 6292, "207061696e74696e67": 6293, "2074726561746564": 6294, "2072656e74616c": 6295, "20706f6c79": 6296, "204e6f72": 6297, "20696d706c656d656e746174696f6e": 6298, "4265666f7265": 6299, "20636162696e": 6300, "204672616e6365": 6301, "204269": 6302, "20416c6578": 6303, "2064656c69766572696e67": 6304, "4345": 6305, "206e65696768626f72686f6f64": 6306, "6b696e": 6307, "2066696e616e6365": 6308, "207461696c6f726564": 6309, "6c616d": 6310, "2070756d70": 6311, "206d61727269616765": 6312, "207265766f6c7574696f6e": 6313, "2070726f7465696e": 6314, "20617373756d": 6315, "2073616c74": 6316, "2066697273746e616d65": 6317, "207365656d6564": 6318, "20616e6369656e74": 6319, "204368696566": 6320, "20636f6d6d756e69636174696f6e73": 6321, "20636f6e6365726e6564": 6322, "20756c74696d6174656c79": 6323, "2068616e646c696e67": 6324, "206170": 6325, "696e6e": 6326, "2066617363": 6327, "69726d6564": 6328, "204772616e64": 6329, "20656d61696c73": 6330, "2063726f7764": 6331, "206174746f726e6579": 6332, "204d696e6973746572": 6333, "2063727970746f637572": 6334, "204c697374": 6335, "2072656c61746976656c79": 6336, "5d0a": 6337, "3337": 6338, "616e697368": 6339, "20566f6c": 6340, "20626f75676874": 6341, "204c6f7665": 6342, "e2809d2e0a": 6343, "7768696c65": 6344, "204765726d616e": 6345, "20726f62757374": 6346, "6172656e": 6347, "2064696564": 6348, "2048756d616e": 6349, "20436f6e74656e74": 6350, "20737175617265": 6351, "2043686963": 6352, "66726f6e74": 6353, "6f677565": 6354, "2073746f726564": 6355, "204672616e63": 6356, "207265696e": 6357, "2052657374": 6358, "2063617465676f72696573": 6359, "2070726f6d6f74696e67": 6360, "20696e74656c6c6967656e6365": 6361, "4f72": 6362, "69666963617465": 6363, "20706c616e6574": 6364, "20436f6e74726f6c": 6365, "2063727970746f": 6366, "207368696674": 6367, "2063656e747265": 6368, "20626f6e75736573": 6369, "4c65": 6370, "206b696e67": 6371, "20526f626572": 6372, "20706f7373657373": 6373, "2056616c6c6579": 6374, "204d69636861656c": 6375, "206174747269627574": 6376, "20636f6d6d6f6e6c79": 6377, "20656e6a6f796564": 6378, "20536f6369657479": 6379, "207369646573": 6380, "206a757374696365": 6381, "4c41": 6382, "616c69616e": 6383, "20696d7072657373697665": 6384, "207479706963616c": 6385, "5554": 6386, "696e617465": 6387, "20706564": 6388, "7461": 6389, "220a": 6390, "e1ba": 6391, "2067656e646572": 6392, "204d757365756d": 6393, "207265736964656e7469616c": 6394, "2072656d61726b": 6395, "2077656170": 6396, "206861726477617265": 6397, "206d617373616765": 6398, "2e290a": 6399, "6c6f6f6b": 6400, "4a757374": 6401, "2046696e616e6369616c": 6402, "20636572746966696564": 6403, "206c69766564": 6404, "20737570706c696573": 6405, "2e65": 6406, "2070757265": 6407, "20546f6d": 6408, "20456e65726779": 6409, "20656469746f72": 6410, "7265656b": 6411, "6175676874": 6412, "207175616c6966696564": 6413, "204b6e6f77": 6414, "2068617070656e696e67": 6415, "496d": 6416, "2046696c": 6417, "20636f616368": 6418, "206465616c696e67": 6419, "205468757273646179": 6420, "206578706c61696e6564": 6421, "206372696d696e616c": 6422, "2077656172696e67": 6423, "207573616765": 6424, "20646566656e7365": 6425, "206d6967": 6426, "737465": 6427, "2062656174": 6428, "206775657374": 6429, "547261": 6430, "20464f52": 6431, "204665646572616c": 6432, "7879": 6433, "207072696f726974": 6434, "6f7261626c65": 6435, "6f776e74": 6436, "656c66": 6437, "206d7573636c65": 6438, "206e7574726974696f6e": 6439, "20616c62756d": 6440, "2074697373": 6441, "20414c": 6442, "2068696464656e": 6443, "20726f6c6573": 6444, "3434": 6445, "2066696c746572": 6446, "2041677265656d656e74": 6447, "20446976": 6448, "72616e73": 6449, "20666f6c6c6f7773": 6450, "20646566696e6564": 6451, "2073697474696e67": 6452, "20656e7465727072697365": 6453, "206461746162617365": 6454, "62616c": 6455, "20746865726170": 6456, "616e6f": 6457, "2064696e696e67": 6458, "204469737472696374": 6459, "20666f7267": 6460, "2063616d706169676e73": 6461, "706f696e74": 6462, "4354": 6463, "20636f6e7472617374": 6464, "656e746c65": 6465, "20436f6e6772657373": 6466, "20756c74696d617465": 6467, "5570": 6468, "69636865": 6469, "2077657374": 6470, "204f4e": 6471, "6c65766973696f6e": 6472, "2054656d": 6473, "204c6f67": 6474, "20736f757468": 6475, "20636f6e73756d7074696f6e": 6476, "616e73696f6e": 6477, "207469636b657473": 6478, "206578706c6f72696e67": 6479, "20646f6d6573746963": 6480, "4275": 6481, "6f6c766564": 6482, "204469": 6483, "204c697665": 6484, "20496e66": 6485, "206f76657277": 6486, "73686970": 6487, "6f74616c": 6488, "c3a1": 6489, "20676f6c66": 6490, "20657175616c": 6491, "205265706f7274": 6492, "2063657265": 6493, "20736561726368696e67": 6494, "2d61": 6495, "2041726162": 6496, "205765646e6573646179": 6497, "2047616d65": 6498, "207265676172646c657373": 6499, "207072696f72697479": 6500, "2055736572": 6501, "204b6579": 6502, "207469636b6574": 6503, "554e": 6504, "20656c656374696f6e": 6505, "20706f7274696f6e": 6506, "6973686572": 6507, "2045636f6e6f6d": 6508, "6167756573": 6509, "2070726f647563746976697479": 6510, "2063616e6e6162": 6511, "206c696d697473": 6512, "2073616d": 6513, "2054756573646179": 6514, "204f696c": 6515, "207570636f6d696e67": 6516, "73656d626c79": 6517, "69636974": 6518, "6e657973": 6519, "20657865637574697665": 6520, "206379626572": 6521, "2054776f": 6522, "20436f7374": 6523, "20776865656c": 6524, "20486f7370": 6525, "20627579657273": 6526, "206d656c": 6527, "20636f6e636c7573696f6e": 6528, "204f6c64": 6529, "2070726f76656e": 6530, "2063656c656272617465": 6531, "676f72697468": 6532, "2d7061727479": 6533, "7261746573": 6534, "206170706561726564": 6535, "656c6c656374": 6536, "206f7267616e6973": 6537, "207472616e73616374696f6e": 6538, "65727473": 6539, "2070756e": 6540, "4f44": 6541, "20696e7665737469676174696f6e": 6542, "206163637572616379": 6543, "20636f6e666c696374": 6544, "20426f6e": 6545, "6973636f": 6546, "206a6577": 6547, "204265616368": 6548, "20646f6d61696e": 6549, "20506f6c696379": 6550, "2061696d73": 6551, "2072657374617572616e7473": 6552, "6f636f6c617465": 6553, "616e646572": 6554, "20696e7369676874": 6555, "2063726561746976697479": 6556, "20737570706c656d656e74": 6557, "207265636f676e6974696f6e": 6558, "207363686f6c617273": 6559, "206f626a65637473": 6560, "206d65616c73": 6561, "206e61747572616c6c79": 6562, "20447562": 6563, "206d696c6c696f6e73": 6564, "206c6f79616c": 6565, "206f626c6967": 6566, "3838": 6567, "206469736561736573": 6568, "20616473": 6569, "524545": 6570, "204177617264": 6571, "20706f73736962696c697479": 6572, "207365636f6e6473": 6573, "6c6f": 6574, "2063617061626c65": 6575, "7768696368": 6576, "4253": 6577, "206162757365": 6578, "696e646572": 6579, "6c75646564": 6580, "507265": 6581, "20646965": 6582, "6f746865": 6583, "20436f6e64": 6584, "206f7574707574": 6585, "62697473": 6586, "6b69": 6587, "206e6f727468": 6588, "2062656c6965766564": 6589, "206865616c696e67": 6590, "206c656e64": 6591, "616c6c6564": 6592, "2071756f74": 6593, "2064697373": 6594, "20436f6e7369646572": 6595, "20757262616e": 6596, "72657175": 6597, "20646565706572": 6598, "20656e6761676564": 6599, "20636f6d706174": 6600, "20696e6372656469626c79": 6601, "556e646572": 6602, "697461": 6603, "20646966666572656e636573": 6604, "313934": 6605, "20736f7068": 6606, "20446576": 6607, "2061636964": 6608, "20626f6e64": 6609, "726573656e7473": 6610, "20736372697074": 6611, "20616d6f756e7473": 6612, "2073747265": 6613, "70656374696f6e": 6614, "7468656e": 6615, "20616e67": 6616, "20636c6f7468696e67": 6617, "20627574746572": 6618, "6c69657273": 6619, "205072656d": 6620, "206d6f76696573": 6621, "206d696e696d616c": 6622, "206f7267616e697a6564": 6623, "20696c6c6e657373": 6624, "7a696e67": 6625, "7965": 6626, "726f6d65": 6627, "20466f726d": 6628, "5253": 6629, "205768657265": 6630, "72797074": 6631, "79636c696e67": 6632, "20776964656c79": 6633, "204c6561726e": 6634, "61727368": 6635, "20646576656c6f70657273": 6636, "2070726f706f736564": 6637, "447572696e67": 6638, "20736f6e6773": 6639, "206d616e64": 6640, "2072656d6f76616c": 6641, "2050616e": 6642, "2054686f7365": 6643, "206d7572": 6644, "204144": 6645, "2048656164": 6646, "20626568616c66": 6647, "20706172616d": 6648, "2053757070": 6649, "2072656c6967696f7573": 6650, "20696c6c6567": 6651, "616c6c65": 6652, "204d6f6e74": 6653, "2065787472616374": 6654, "7269657273": 6655, "666f726d616e6365": 6656, "204d75736963": 6657, "6e6963": 6658, "20616772656564": 6659, "207068617365": 6660, "6969": 6661, "204d6572": 6662, "77686174": 6663, "696e64696e67": 6664, "206672616d65776f726b": 6665, "6f6c61": 6666, "6566697473": 6667, "20686f73706974": 6668, "75726e696e67": 6669, "2062656172": 6670, "6d6172": 6671, "206669726d73": 6672, "206665656c696e6773": 6673, "20636f6e73696465726174696f6e": 6674, "77726974": 6675, "696e6572": 6676, "206163636f7264": 6677, "206950686f6e65": 6678, "2063617074757265": 6679, "20707265666572726564": 6680, "2072616e64": 6681, "207061726b696e67": 6682, "206775617264": 6683, "206d65726368": 6684, "2072656c79": 6685, "206e617272": 6686, "20546178": 6687, "616368656c": 6688, "2076656e74": 6689, "20457175": 6690, "656e646172": 6691, "20457865637574": 6692, "205465726d73": 6693, "626c6573": 6694, "6761": 6695, "616e676564": 6696, "206163636573736f72696573": 6697, "526567": 6698, "20747275636b": 6699, "756e646572": 6700, "2072656d61696e696e67": 6701, "207768656e65766572": 6702, "2074726f75626c65": 6703, "2061646d": 6704, "2d6d61696c": 6705, "2041746c": 6706, "2072657665616c6564": 6707, "20696e666f": 6708, "616c7365": 6709, "20656d706f776572": 6710, "20496e737572616e6365": 6711, "2063617573696e67": 6712, "455253": 6713, "207265636f72646564": 6714, "206465736372697074696f6e": 6715, "2043686f6f7365": 6716, "5043": 6717, "61636865": 6718, "2076616e": 6719, "2057686f": 6720, "2d737065": 6721, "206661696c6564": 6722, "2061747472616374697665": 6723, "20636f6d706f6e656e74": 6724, "2070726573656e746174696f6e": 6725, "2054686f6d": 6726, "20726570726573656e7473": 6727, "20636f6e74656d706f72617279": 6728, "20666c79": 6729, "616d656e74616c": 6730, "2064757261626c65": 6731, "20626f72726f77": 6732, "2070726f636573736564": 6733, "6269": 6734, "2064656e74": 6735, "2043656e747265": 6736, "207375737461696e6162696c697479": 6737, "20736f756c": 6738, "2043616e616469616e": 6739, "20696e63656e74": 6740, "416e79": 6741, "73746f6e65": 6742, "206d616e75616c": 6743, "616964": 6744, "2062616e6b73": 6745, "2070726f70": 6746, "63686572": 6747, "20766f7465": 6748, "20636f6e73756c746174696f6e": 6749, "636170": 6750, "726173": 6751, "2072616e646f6d": 6752, "20417574686f72": 6753, "6f7261": 6754, "696e7473": 6755, "20726164696f": 6756, "7c7c": 6757, "206c697374656e696e67": 6758, "206f7665727768656c": 6759, "20737472696374": 6760, "206e6174697665": 6761, "6964617973": 6762, "2053756d": 6763, "20726964": 6764, "2066696c6d73": 6765, "2062726f776e": 6766, "20576f72645072657373": 6767, "5353": 6768, "63696573": 6769, "77657374": 6770, "2ee28099": 6771, "206368696566": 6772, "616e6961": 6773, "6f736f7068": 6774, "206c656174686572": 6775, "206f75747374616e64696e67": 6776, "20616363656c6572": 6777, "20536563726574": 6778, "206672617564": 6779, "2072657061697273": 6780, "2048656c70": 6781, "65736f6d65": 6782, "416c74686f756768": 6783, "20737562736372697074696f6e": 6784, "6f676574686572": 6785, "20657874656e74": 6786, "2063686172676564": 6787, "2d7363": 6788, "20636c6f74686573": 6789, "206175746f": 6790, "4742": 6791, "20706f6b6572": 6792, "207461626c6573": 6793, "204d696c6c": 6794, "206d617272696564": 6795, "3339": 6796, "6f6e796d": 6797, "20636f756e73656c": 6798, "207265666572726564": 6799, "20796573": 6800, "20666f72636564": 6801, "20736b696c6c6564": 6802, "2053686f77": 6803, "204170706c6963": 6804, "616265746573": 6805, "2067616c6c": 6806, "2068656174696e67": 6807, "616e6461": 6808, "726573706f6e64": 6809, "206573736179": 6810, "206d6f756e7461696e": 6811, "20746573746564": 6812, "206170706c79696e67": 6813, "4c617374": 6814, "206f776e6564": 6815, "46696e": 6816, "2073746174656d656e7473": 6817, "20666f727468": 6818, "20776f727365": 6819, "6f726473": 6820, "206f666669636572": 6821, "20746f6f7468": 6822, "20726567696f6e73": 6823, "20416e6f74686572": 6824, "204361726f6c": 6825, "20466f6c6c6f77": 6826, "20616c676f72697468": 6827, "20446f6573": 6828, "206d6f74696f6e": 6829, "c3b3": 6830, "20746162": 6831, "6967616e": 6832, "204c6f": 6833, "20706572736f6e616c697479": 6834, "7669726f6e6d656e7473": 6835, "61707079": 6836, "206d696c6b": 6837, "686f77": 6838, "756c6f7573": 6839, "2073756666696369656e74": 6840, "504e": 6841, "6b6574": 6842, "2061747461636b73": 6843, "20666f6c6b73": 6844, "4d41": 6845, "206c6f73696e67": 6846, "20526164": 6847, "205175657374": 6848, "20726f756768": 6849, "20646976657273697479": 6850, "20737563": 6851, "20706c616e6e6564": 6852, "6172726f77": 6853, "20617267": 6854, "20777269746572": 6855, "206d616e75666163747572657273": 6856, "20776964": 6857, "6574617279": 6858, "2d6c696e65": 6859, "2068756d616e73": 6860, "206b6579776f7264": 6861, "20616c6f6e6773696465": 6862, "207661636174696f6e": 6863, "20536d697468": 6864, "2062617468726f6f6d": 6865, "202a": 6866, "203d": 6867, "2070697065": 6868, "20696d706f737369626c65": 6869, "20656e6473": 6870, "20656666696369656e746c79": 6871, "207574696c697a65": 6872, "205072616374": 6873, "20656c656374726963697479": 6874, "67656e64": 6875, "20616e616c7974696373": 6876, "61696c61626c65": 6877, "207475726e73": 6878, "20686f727365": 6879, "204775696465": 6880, "206f66666963657273": 6881, "2070656e616c": 6882, "5370": 6883, "686f7273": 6884, "20756e6c696b65": 6885, "20436f72706f72": 6886, "20706c656173757265": 6887, "20636869636b656e": 6888, "20776f726b706c616365": 6889, "3439": 6890, "2056697267696e": 6891, "206469737472696374": 6892, "5175": 6893, "207265736f6c7574696f6e": 6894, "20626c6f77": 6895, "206f7574636f6d65": 6896, "206a6577656c": 6897, "76696e": 6898, "207265737472696374696f6e73": 6899, "20657870726573736564": 6900, "2073656e64696e67": 6901, "20656d6f74696f6e73": 6902, "20726967": 6903, "206c65676974": 6904, "2073747275637475726573": 6905, "207072696d6172696c79": 6906, "2069726f6e": 6907, "293a": 6908, "20646973637573736564": 6909, "20686f75736573": 6910, "207461636b": 6911, "204974616c69616e": 6912, "20646566656e64": 6913, "20617272697665": 6914, "696e636c7564696e67": 6915, "20626964": 6916, "2057616c": 6917, "20446f776e6c6f6164": 6918, "204d6178": 6919, "20456d706c6f79": 6920, "323530": 6921, "20526f636b": 6922, "207475726e696e67": 6923, "204154": 6924, "206167726963": 6925, "206372697465726961": 6926, "2075706c6f6164": 6927, "20666f": 6928, "656e73697479": 6929, "20726f757465": 6930, "5465": 6931, "5768657265": 6932, "20416666": 6933, "206e75747269": 6934, "206361746572": 6935, "206769667473": 6936, "204d756c74": 6937, "206d616e6167657273": 6938, "2063616e646964617465": 6939, "2070726f6772616d6d65": 6940, "7574746572": 6941, "20416e616c79": 6942, "2d4c": 6943, "2048696c6c": 6944, "205061726973": 6945, "20736b79": 6946, "206561726e6564": 6947, "2053746f7265": 6948, "2068747470": 6949, "2061727269766564": 6950, "2063726577": 6951, "206372696d65": 6952, "2054696d": 6953, "206163686965766564": 6954, "2041636164656d79": 6955, "206174686c6574": 6956, "657369646573": 6957, "2057696c64": 6958, "20656e7669726f6e6d656e7473": 6959, "2042616c": 6960, "20706861726d": 6961, "204a61636b": 6962, "5468616e6b": 6963, "20736f6c7665": 6964, "6369666963": 6965, "20696e737069726174696f6e": 6966, "204344": 6967, "52656d": 6968, "2064656d616e6473": 6969, "20696e65": 6970, "206269727468646179": 6971, "70726574": 6972, "20446f67": 6973, "20746175676874": 6974, "2072657461696e": 6975, "20737065656368": 6976, "20636f6e7374616e74": 6977, "20636861726163746572697374696373": 6978, "5065": 6979, "207065726d": 6980, "206571756970706564": 6981, "207072657061726174696f6e": 6982, "206d6f62": 6983, "20426173": 6984, "204c696e6b": 6985, "2061676573": 6986, "6c6574746572": 6987, "20696e737472756d656e74": 6988, "656e61": 6989, "206461746573": 6990, "6164696e67": 6991, "206c6573736f6e73": 6992, "20636f6e766572": 6993, "204368696361676f": 6994, "5054": 6995, "6f73797374656d": 6996, "20696e7370656374": 6997, "20417373697374": 6998, "2048616e64": 6999, "20686972696e67": 7000, "2054696d6573": 7001, "20504d": 7002, "20746170": 7003, "2071756f7465": 7004, "204272616e64": 7005, "20696e636964656e74": 7006, "696e6775": 7007, "2066756e64616d656e74616c": 7008, "526563": 7009, "2074656172": 7010, "2070696c6c": 7011, "2061726d73": 7012, "20707269736f6e": 7013, "207375727072697365": 7014, "6c696e6564": 7015, "756374": 7016, "206d65657473": 7017, "20657374696d61746564": 7018, "204d657869636f": 7019, "20617272657374": 7020, "20696d6167696e65": 7021, "6b657273": 7022, "69727479": 7023, "20696e697469617469766573": 7024, "20737072": 7025, "207061636b61676573": 7026, "2073746162696c697479": 7027, "756c696e67": 7028, "204d6f": 7029, "206b69636b": 7030, "2064616d61676573": 7031, "207374727567676c65": 7032, "205052": 7033, "57686574686572": 7034, "20736d696c65": 7035, "2073747564696f": 7036, "20617070726f76616c": 7037, "206c6963656e736564": 7038, "20636f6e6669726d6564": 7039, "206661637473": 7040, "6f74746f6e": 7041, "20736176696e67": 7042, "6372697074696f6e73": 7043, "206361726566756c": 7044, "206d656d6f72696573": 7045, "20666966": 7046, "20657175697479": 7047, "204f72646572": 7048, "204152": 7049, "4f66": 7050, "206c6177796572": 7051, "206f7074696d616c": 7052, "416d": 7053, "207365616d6c657373": 7054, "2050726f706572": 7055, "2050726f6d": 7056, "204e6176": 7057, "20636f6d70656e736174696f6e": 7058, "696e656e74": 7059, "657276696e67": 7060, "726964": 7061, "20646973636970": 7062, "20617374": 7063, "6f776e657273": 7064, "2063616d707573": 7065, "20736f7068697374": 7066, "206e6f697365": 7067, "207477696365": 7068, "2070726f6d697365": 7069, "20616c6c65": 7070, "2074656c65766973696f6e": 7071, "206f6276696f7573": 7072, "20f09f": 7073, "205761746368": 7074, "2074656c6c696e67": 7075, "20636f6e73657175656e636573": 7076, "20657870657269656e63696e67": 7077, "20726177": 7078, "20737566666572696e67": 7079, "20617263686974656374757265": 7080, "697074": 7081, "4576656e": 7082, "2057616c6c": 7083, "5345": 7084, "204c74": 7085, "2044656d6f6372": 7086, "206c696573": 7087, "20646563616465": 7088, "6976657279": 7089, "20556c74": 7090, "206f666669636573": 7091, "2073616d706c65": 7092, "20636f6d70726f6d": 7093, "697665727365": 7094, "65646765": 7095, "206861626974": 7096, "20696e74656e74": 7097, "206572726f7273": 7098, "206665617475726564": 7099, "2044656e": 7100, "616e636572": 7101, "20666c6f6f64": 7102, "656c6c65637475616c": 7103, "2f73": 7104, "44697363": 7105, "6e6f6f6e": 7106, "20496c6c": 7107, "2053616c6573": 7108, "20566572": 7109, "706c657465": 7110, "205061636b": 7111, "206e6f6d": 7112, "207570706572": 7113, "20437570": 7114, "206c756e6368": 7115, "20706f73736962696c6974696573": 7116, "20666f756e646564": 7117, "2d6f7574": 7118, "696e676c79": 7119, "20536572696573": 7120, "207370656369616c697374": 7121, "20536d617274": 7122, "2056696374": 7123, "2064656772656573": 7124, "206d6f6c64": 7125, "20656d706c6f796572": 7126, "204a6f75726e616c": 7127, "76656e74696f6e616c": 7128, "69746172": 7129, "206e696e65": 7130, "2073757370": 7131, "2070757273": 7132, "20726567756c61746f7279": 7133, "2066656c6c6f77": 7134, "2d6c6576656c": 7135, "204e6f6e": 7136, "2079656c6c6f77": 7137, "20666561747572696e67": 7138, "207065726d616e656e74": 7139, "4665": 7140, "20636175676874": 7141, "20756e6578": 7142, "756d7073": 7143, "20656e7465726564": 7144, "20696e7374616e74": 7145, "2074656c6c73": 7146, "20457870657269656e6365": 7147, "206c656769736c6174696f6e": 7148, "206578706572696d656e74": 7149, "207969656c64": 7150, "2053616e64": 7151, "6f73697465": 7152, "6f67726170686963": 7153, "61746f": 7154, "2064757374": 7155, "204c6561677565": 7156, "206e6561726279": 7157, "20546f776e": 7158, "206b6974": 7159, "206d61676963": 7160, "69656365": 7161, "416c736f": 7162, "207369676874": 7163, "20756e6465727374": 7164, "20656e7472": 7165, "383030": 7166, "77656574": 7167, "206f627374": 7168, "6665": 7169, "2066696e616e63696e67": 7170, "65726173": 7171, "2052657175": 7172, "20687572": 7173, "20457865637574697665": 7174, "20757375616c": 7175, "204368696c6472656e": 7176, "7661": 7177, "20657863656564": 7178, "756d6573": 7179, "2077617368": 7180, "6570696e67": 7181, "20756e64657274": 7182, "2073696c766572": 7183, "206d6f6f64": 7184, "2050617373": 7185, "207472616e736c": 7186, "636c6573": 7187, "696c7374": 7188, "206b696c6c6564": 7189, "776f727468": 7190, "2042726f776e": 7191, "20636f6e74726f": 7192, "2061727473": 7193, "20626c657373": 7194, "726961": 7195, "2d52": 7196, "2d6f6666": 7197, "c3ad": 7198, "2063726f": 7199, "205769": 7200, "2067656e746c65": 7201, "20737461696e": 7202, "2073686970706564": 7203, "20706572666f726d696e67": 7204, "20526f79616c": 7205, "616e676572": 7206, "206d7973746572": 7207, "206f627461696e6564": 7208, "206e6f6e65": 7209, "75726174696f6e": 7210, "207472616e73666f726d6174696f6e": 7211, "206164646974696f6e616c6c79": 7212, "20486f74656c": 7213, "69746572": 7214, "757473": 7215, "2073756363656564": 7216, "79616e": 7217, "204d656e": 7218, "20636172706574": 7219, "62726964": 7220, "2047616d6573": 7221, "207a65726f": 7222, "206672757374": 7223, "207468656f7279": 7224, "2062696c6c73": 7225, "204c616e64": 7226, "207465656e": 7227, "20656e636f756e746572": 7228, "2072617069646c79": 7229, "20636f646573": 7230, "2070726f746f636f6c": 7231, "2073746179696e67": 7232, "20636f6e6365707473": 7233, "77656172": 7234, "61776179": 7235, "2072656a656374": 7236, "206772616465": 7237, "20647265616d73": 7238, "6275": 7239, "4c59": 7240, "2046756c6c": 7241, "20696e646578": 7242, "2073747265746368": 7243, "7561": 7244, "206d6972": 7245, "7070657273": 7246, "2053686f70": 7247, "726f7665": 7248, "20726573696c": 7249, "207065726d697373696f6e": 7250, "206c6f676f": 7251, "207068656e": 7252, "2066726f": 7253, "20736c6f776c79": 7254, "20696e63686573": 7255, "2068657273656c66": 7256, "207363686564756c6564": 7257, "65746f": 7258, "20547275": 7259, "207669727573": 7260, "20536166657479": 7261, "20696e76656e746f7279": 7262, "204c4c43": 7263, "206d61696e6c79": 7264, "20636f72726573706f6e64": 7265, "207375676765737473": 7266, "3fe2809d0a": 7267, "2061637473": 7268, "d0b0": 7269, "2070696c6c73": 7270, "207374617273": 7271, "206172726179": 7272, "6c61696d": 7273, "6f72616c": 7274, "204c6f73": 7275, "4f74686572": 7276, "6f6f73": 7277, "2074617374": 7278, "20436f6f6b": 7279, "204a6f65": 7280, "206e6f726d616c6c79": 7281, "6b6564": 7282, "626574": 7283, "2073796e": 7284, "2073756273657175": 7285, "57686f": 7286, "67797074": 7287, "6c65747465": 7288, "20736d656c6c": 7289, "2076696c6c616765": 7290, "2065786368": 7291, "2073756274": 7292, "20736166656c79": 7293, "434f": 7294, "2073796e74": 7295, "4949": 7296, "2070726f73": 7297, "2070726f647563696e67": 7298, "2076697369626c65": 7299, "2070696c": 7300, "206d75736963616c": 7301, "62757267": 7302, "6173616e74": 7303, "4853": 7304, "4c656172": 7305, "20746167": 7306, "61746879": 7307, "2053636f7474": 7308, "697374657273": 7309, "20776574": 7310, "2050726f63657373": 7311, "20617070726f6163686573": 7312, "2041727473": 7313, "20657261": 7314, "20506c616365": 7315, "207072696e746564": 7316, "6769": 7317, "20636f736d": 7318, "20737570706f736564": 7319, "576f72": 7320, "2062616374": 7321, "2069736f6c": 7322, "207375706572696f72": 7323, "204d616368": 7324, "2073747265616d696e67": 7325, "65726e696e67": 7326, "20437261": 7327, "20686f6e6f72": 7328, "3737": 7329, "206566666563746976656e657373": 7330, "206c6f766573": 7331, "204c617374": 7332, "20726973696e67": 7333, "d0bd": 7334, "2070726f7665": 7335, "3031": 7336, "77696e67": 7337, "e180": 7338, "75726973": 7339, "6f626279": 7340, "2063656e74657273": 7341, "206d617463686573": 7342, "206d65616e696e6766756c": 7343, "20556b7261696e65": 7344, "20696e6e6572": 7345, "206865726f": 7346, "2077656c6c6e657373": 7347, "2064657374726f79": 7348, "20646566656374": 7349, "205072696365": 7350, "546f646179": 7351, "2067656e657261746564": 7352, "206163636f6d706c697368": 7353, "2d47": 7354, "206d757365756d": 7355, "206761696e6564": 7356, "757262": 7357, "20456e7669726f6e6d656e74": 7358, "20706572696f6473": 7359, "207072696465": 7360, "20666f6375736573": 7361, "69747574696f6e": 7362, "204c6f63616c": 7363, "20616464726573736573": 7364, "206c617074": 7365, "20796f756e676572": 7366, "204e657874": 7367, "20696c6c6567616c": 7368, "6c6c61": 7369, "2064657369676e6572": 7370, "20537069726974": 7371, "65646961": 7372, "2047616c": 7373, "207265636f766572": 7374, "2064757479": 7375, "4557": 7376, "696674696e67": 7377, "756c73": 7378, "206772617068696373": 7379, "2e41": 7380, "2067726162": 7381, "2070686f746f67726170": 7382, "455353": 7383, "d0be": 7384, "697a6572": 7385, "207369676e616c": 7386, "20656e746974": 7387, "7374657273": 7388, "72616374696f6e": 7389, "206c6f76656c79": 7390, "20696e6974696174697665": 7391, "2050524f": 7392, "20726564756374696f6e": 7393, "207765656b6c79": 7394, "2047656f726765": 7395, "72656e746c79": 7396, "206163636f7264616e6365": 7397, "206669676874696e67": 7398, "63657273": 7399, "2070657263656e74616765": 7400, "20636f6e766572736174696f6e73": 7401, "20686973746f726963": 7402, "20726571756972656d656e74": 7403, "536565": 7404, "206a75646765": 7405, "2070617373696f6e617465": 7406, "2050726f74656374696f6e": 7407, "206772617373": 7408, "557365": 7409, "2067726577": 7410, "20747574": 7411, "20497265": 7412, "206a6f696e696e67": 7413, "20666f726d616c": 7414, "20616476656e74": 7415, "2076657273696f6e73": 7416, "20636f6d706c61696e": 7417, "2070726573656e7473": 7418, "20436c6f7564": 7419, "20636f6e74726f6c73": 7420, "206e6f7469636564": 7421, "207370726179": 7422, "2070617274696369706174696f6e": 7423, "206f626a65637469766573": 7424, "20626f74746c65": 7425, "2065636f73797374656d": 7426, "205665": 7427, "20636865657365": 7428, "204d6f72656f766572": 7429, "20666f637573696e67": 7430, "2072616e6b696e67": 7431, "696e656d": 7432, "2065617374": 7433, "20616972706f7274": 7434, "20636f6d706c696361746564": 7435, "5441": 7436, "2066697368696e67": 7437, "6f7368": 7438, "2066696775726573": 7439, "204c6f756973": 7440, "524c": 7441, "756d61": 7442, "20656e61626c696e67": 7443, "72616964": 7444, "20456e64": 7445, "617a7a": 7446, "20576179": 7447, "205370616e697368": 7448, "20656e6a6f79696e67": 7449, "204974616c79": 7450, "207369636b": 7451, "206d656469636174696f6e": 7452, "20696e746572616374696f6e": 7453, "69736b": 7454, "2066616c7365": 7455, "20536172": 7456, "205365636f6e64": 7457, "2066657274": 7458, "2e2e2e2e": 7459, "2050726f66657373696f6e616c": 7460, "2074616e6b": 7461, "20706f70756c6172697479": 7462, "20434f4e": 7463, "20646973686573": 7464, "20736174697366696564": 7465, "20737461626c65": 7466, "7a696c": 7467, "20636f6e6372657465": 7468, "206275796572": 7469, "20636f70797269676874": 7470, "20656d7074": 7471, "206163746976656c79": 7472, "207461726765746564": 7473, "206465736372696265": 7474, "20666962": 7475, "206170706172656e74": 7476, "20696e746572616374697665": 7477, "20506f6c696365": 7478, "2073746f70706564": 7479, "205355": 7480, "20736368656d65": 7481, "206f70696e696f6e73": 7482, "656e746564": 7483, "204e59": 7484, "313230": 7485, "756c6174696e67": 7486, "20456e74": 7487, "2072657761726473": 7488, "20636f72726563746c79": 7489, "20636f6c6c656167756573": 7490, "796f75": 7491, "436865636b": 7492, "7a6573": 7493, "2073757370656374": 7494, "2073706f6b65": 7495, "20746572726974": 7496, "206164657175": 7497, "65656e": 7498, "205574": 7499, "363030": 7500, "697474696e67": 7501, "2066657374": 7502, "20626f72646572": 7503, "207265636f7264696e67": 7504, "2065787072657373696f6e": 7505, "61796572": 7506, "616369666963": 7507, "2063757272656e6379": 7508, "207368617270": 7509, "206c69666574696d65": 7510, "206576616c756174696f6e": 7511, "20566964656f": 7512, "2d6578": 7513, "206578706f736564": 7514, "2064656661756c74": 7515, "206d6f697374757265": 7516, "204a7564": 7517, "20636f6e7369737473": 7518, "2061667465726e6f6f6e": 7519, "6e6f766174696f6e": 7520, "20547261696e696e67": 7521, "20766572736174696c65": 7522, "20726f75": 7523, "206578706c61696e73": 7524, "2070686f746f677261706879": 7525, "20657863697465": 7526, "706f": 7527, "2068616c6c": 7528, "204c696272617279": 7529, "206772616475617465": 7530, "2066756c66696c6c": 7531, "204c7464": 7532, "207065726d6974": 7533, "656775": 7534, "2052656d656d626572": 7535, "20696d70726f76656d656e7473": 7536, "206d69786564": 7537, "436f6e73": 7538, "20706d": 7539, "20636f6d70617265": 7540, "20736f6c656c79": 7541, "2050616b": 7542, "2073706f7473": 7543, "207370656369616c697a6564": 7544, "207574696c697a696e67": 7545, "6773": 7546, "20706572736f6e73": 7547, "20626f786573": 7548, "2067756d6d696573": 7549, "206f726465726564": 7550, "206661766f7572697465": 7551, "206b6e65": 7552, "20436f6c6c": 7553, "506572": 7554, "207368656574": 7555, "20646973706c61796564": 7556, "2d656e64": 7557, "207468696e": 7558, "20667275": 7559, "206162696c6974696573": 7560, "206c6f73736573": 7561, "2d6b6e6f776e": 7562, "204348": 7563, "20656e666f7263656d656e74": 7564, "202e0a": 7565, "2066697473": 7566, "207265666f726d": 7567, "206e65636573736172696c79": 7568, "206175746f6d6174696f6e": 7569, "3634": 7570, "2074686572": 7571, "20736572696f75736c79": 7572, "207265616368696e67": 7573, "616f": 7574, "20437265646974": 7575, "20706c617465": 7576, "2062657473": 7577, "2070617373656e67": 7578, "20746572726f72": 7579, "2063616e6e61626973": 7580, "2074616374": 7581, "207374726f6e676572": 7582, "2063616b65": 7583, "204d53": 7584, "204d6f62696c65": 7585, "72656e6365": 7586, "206d6974": 7587, "6c79776f6f64": 7588, "696e74616765": 7589, "2d6e": 7590, "3835": 7591, "20666163756c7479": 7592, "204c6561726e696e67": 7593, "45616368": 7594, "20696e64656564": 7595, "20646565706c79": 7596, "6f6c6974": 7597, "20737573": 7598, "20526967687473": 7599, "20646973706f73": 7600, "207669736962696c697479": 7601, "20686573": 7602, "20446f75": 7603, "206d6973736564": 7604, "2062656c6965766573": 7605, "63656e64": 7606, "20646f776e74": 7607, "204c4544": 7608, "20696e74656e7365": 7609, "204567797074": 7610, "20636f6c756d6e": 7611, "20636865636b696e67": 7612, "20656d706c6f79657273": 7613, "20666f726563617374": 7614, "2064657072657373696f6e": 7615, "20736164": 7616, "206272656164": 7617, "20526f": 7618, "20637573746f6d697a6564": 7619, "20617574686f7273": 7620, "20537072696e67": 7621, "6f7765726564": 7622, "6572656e74": 7623, "2064726976656e": 7624, "206576616c75617465": 7625, "207068696c6f736f7068": 7626, "6967656e": 7627, "7061706572": 7628, "72757074696f6e": 7629, "20656e68616e636564": 7630, "206c6962": 7631, "6475617465": 7632, "2053706f727473": 7633, "6974617465": 7634, "20656d697373696f6e73": 7635, "206272757368": 7636, "206c657473": 7637, "6d65726369616c": 7638, "206172746966696369616c": 7639, "20707572636861736573": 7640, "20416e67656c6573": 7641, "73656374": 7642, "65727279": 7643, "e280992c": 7644, "205065746572": 7645, "2070726f6772616d6d696e67": 7646, "20617765736f6d65": 7647, "206f726967696e616c6c79": 7648, "206a65": 7649, "20696e74657266": 7650, "20696e74726f64756374696f6e": 7651, "6f6f66": 7652, "2074657874757265": 7653, "20486973746f7279": 7654, "61736d": 7655, "204d6964646c65": 7656, "204c6f77": 7657, "696e697479": 7658, "206e6172726f77": 7659, "20646563656e74": 7660, "20636f6e747269627574696f6e73": 7661, "2062616773": 7662, "206f626a656374697665": 7663, "20666f726d6564": 7664, "206f6363757273": 7665, "20637269746963": 7666, "6f726f7573": 7667, "203e": 7668, "657273686970": 7669, "2068617a": 7670, "206174746163686564": 7671, "207368656c": 7672, "20666f7265766572": 7673, "20636f6e74696e756f7573": 7674, "2d48": 7675, "2043726f7373": 7676, "20737570706c69657273": 7677, "6f6e69616c": 7678, "20547279": 7679, "205353": 7680, "20657863657074696f6e": 7681, "73656d": 7682, "6f746f": 7683, "2073686f7073": 7684, "206f646473": 7685, "206261736963616c6c79": 7686, "207069636b6564": 7687, "205350": 7688, "20747269636b": 7689, "20646f63756d656e746174696f6e": 7690, "2072616e6b": 7691, "20706872": 7692, "75737461696e": 7693, "207370696e": 7694, "204368616972": 7695, "616665": 7696, "76697479": 7697, "70656e64696e67": 7698, "2074696e79": 7699, "2053686f756c64": 7700, "206f7065726174696f6e616c": 7701, "206a6577656c7279": 7702, "2073686f776572": 7703, "20706f77646572": 7704, "21e2809d": 7705, "62726174696f6e": 7706, "204556": 7707, "20766567657461626c6573": 7708, "20636f6d7072": 7709, "313933": 7710, "20696e6e": 7711, "20696e746572616374696f6e73": 7712, "63616e": 7713, "20536f6c7574696f6e73": 7714, "70656c": 7715, "20466573746976616c": 7716, "204972656c616e64": 7717, "756973": 7718, "2053656c656374": 7719, "6f727365": 7720, "206469766964": 7721, "2077726974657273": 7722, "20696e74656772697479": 7723, "20457373": 7724, "20737472656e677468656e": 7725, "20746f6e65": 7726, "20736973746572": 7727, "204641": 7728, "2063756c": 7729, "6963616e": 7730, "2e44": 7731, "20686162697473": 7732, "20736f66": 7733, "20696d6d6967": 7734, "636861696e": 7735, "204d6f6e6579": 7736, "205765656b": 7737, "20526576": 7738, "2067756172616e74656564": 7739, "20737461676573": 7740, "20656e746572696e67": 7741, "206261736b6574": 7742, "20666f75727468": 7743, "696574696573": 7744, "20666169726c79": 7745, "206c616479": 7746, "20656e7472657072656e65757273": 7747, "686577": 7748, "20676f64": 7749, "20486f73706974616c": 7750, "46726565": 7751, "20486177": 7752, "20726174696e67": 7753, "206661636564": 7754, "20737567676573746564": 7755, "20436f6e73756c74": 7756, "2063616e63656c6c": 7757, "207469746c6573": 7758, "48617665": 7759, "20656e6a6f7961626c65": 7760, "75696e67": 7761, "2070726f686962": 7762, "20466564": 7763, "2072656672657368": 7764, "455354": 7765, "2d6c696b65": 7766, "20756e6365727461696e": 7767, "206475726162696c697479": 7768, "20446f6d": 7769, "57656c6c": 7770, "20746970": 7771, "20747261646974696f6e": 7772, "2054726176656c": 7773, "20746f78": 7774, "616e746564": 7775, "20676c6f6265": 7776, "2d6d616b696e67": 7777, "20627265616b66617374": 7778, "4545": 7779, "666f7277617264": 7780, "2065737461626c6973686d656e74": 7781, "206368617267696e67": 7782, "222c": 7783, "20746872656164": 7784, "2042616e67": 7785, "2065646974696f6e": 7786, "20696d6d756e65": 7787, "4159": 7788, "20534d": 7789, "74686174": 7790, "206578697374656e6365": 7791, "20616e616c797a65": 7792, "2047656f7267": 7793, "2070726f766973696f6e": 7794, "204b656e": 7795, "206272656564": 7796, "20526f6d616e": 7797, "20646f63746f7273": 7798, "20627265617374": 7799, "206d61726b6564": 7800, "207361756365": 7801, "206175746f6d61746564": 7802, "204573": 7803, "206469736d": 7804, "207361766564": 7805, "20696e66656374696f6e": 7806, "2063657274696669636174696f6e": 7807, "5f5f5f5f": 7808, "2072656d61726b61626c65": 7809, "20707261": 7810, "726976656e": 7811, "206c617374696e67": 7812, "206163636f756e74696e67": 7813, "636f6c": 7814, "2070657473": 7815, "207265616c697a6564": 7816, "206c696b6573": 7817, "72656c": 7818, "6f6c6f67697374": 7819, "20627269646765": 7820, "2073756767657374696f6e73": 7821, "42657374": 7822, "20506f74": 7823, "20426f78": 7824, "2054687573": 7825, "207261696c": 7826, "2066696e64696e6773": 7827, "20576974686f7574": 7828, "f09d98": 7829, "456d": 7830, "2074726f": 7831, "204175746f6d": 7832, "2074656d706572617475726573": 7833, "2074616c6c": 7834, "7572696f7573": 7835, "2070617373696e67": 7836, "206c657474657273": 7837, "20696d7061637473": 7838, "2063686f636f6c617465": 7839, "6f7479": 7840, "204d6964": 7841, "20686967686c6967687473": 7842, "2d636c617373": 7843, "2064726177696e67": 7844, "20536e": 7845, "206d696e65": 7846, "20436c69": 7847, "207363616e": 7848, "20636f6e73697374656e746c79": 7849, "206e757273696e67": 7850, "207375626d6974746564": 7851, "2073656c656374696e67": 7852, "20536f6d6574696d6573": 7853, "20756e6578706563746564": 7854, "204570": 7855, "69766174696e67": 7856, "206469616265746573": 7857, "20696d6d657273": 7858, "20696e74726f64756365": 7859, "207269766572": 7860, "2070696e": 7861, "6c756465": 7862, "20526f62657274": 7863, "20636f6e7461696e6564": 7864, "207374656164": 7865, "2070616e656c73": 7866, "20536f667477617265": 7867, "416464": 7868, "20696e7370656374696f6e": 7869, "2053747564656e7473": 7870, "206f776e657273686970": 7871, "6f6e6963": 7872, "206c6175": 7873, "706f6e73": 7874, "205175616c697479": 7875, "20636f6e74696e75696e67": 7876, "2073686f756c646e": 7877, "2063616c6d": 7878, "2062616e6b696e67": 7879, "2067726561746c79": 7880, "20726561646572": 7881, "76616e74": 7882, "20636f636b": 7883, "20426f77": 7884, "20616c746572": 7885, "656c696e67": 7886, "726f64756374696f6e": 7887, "20746f75726e616d": 7888, "2072656369706573": 7889, "5645": 7890, "20696e646963617465": 7891, "4d616b65": 7892, "207370696e73": 7893, "6e6f776e6564": 7894, "206578636974656d656e74": 7895, "206c6f7474657279": 7896, "20436f617374": 7897, "20616672616964": 7898, "20616371756973": 7899, "656572": 7900, "20636264": 7901, "6f727279": 7902, "20706170657273": 7903, "20657870616e73696f6e": 7904, "2064697372757074": 7905, "7572697364": 7906, "20617370": 7907, "20696e74657270726574": 7908, "686f7073": 7909, "61747265": 7910, "20696e6a656374": 7911, "20656e67696e6573": 7912, "206d61726b73": 7913, "2074726176656c696e67": 7914, "756d62696e67": 7915, "7072696e74": 7916, "436c69636b": 7917, "206e6574776f726b696e67": 7918, "20467572746865726d6f7265": 7919, "205472656174": 7920, "2073686f636b": 7921, "20706c6163696e67": 7922, "20636f6e7363696f7573": 7923, "657373656c": 7924, "2050656e6e": 7925, "4453": 7926, "68697265": 7927, "696b696e67": 7928, "204a6f7365": 7929, "20657863656c6c656e6365": 7930, "3432": 7931, "204269626c65": 7932, "20636f6d706c79": 7933, "207072696e74696e67": 7934, "207374796c697368": 7935, "20616c74": 7936, "206879706572": 7937, "20576f726b73": 7938, "766173": 7939, "4450": 7940, "20686f726d": 7941, "206c656773": 7942, "206361727279696e67": 7943, "204a6577697368": 7944, "73747265616d": 7945, "63657373617279": 7946, "204d656d62657273": 7947, "554c": 7948, "207365747570": 7949, "2049736c616d": 7950, "2064656d6f6e737472617465": 7951, "6379636c65": 7952, "6a61636b": 7953, "2064657369676e657273": 7954, "207375727665": 7955, "20627265616b696e67": 7956, "20636f766572696e67": 7957, "c3a2": 7958, "2077617265": 7959, "206d696e69": 7960, "3636": 7961, "20447574": 7962, "2044696666": 7963, "207a6f6e65": 7964, "20776f727374": 7965, "313932": 7966, "204e65766572": 7967, "20696e74726963": 7968, "2073747265657473": 7969, "207761726e": 7970, "205368697070696e67": 7971, "20686f6c6964617973": 7972, "20537175": 7973, "6265727279": 7974, "206f766572636f6d65": 7975, "697874757265": 7976, "206173696465": 7977, "6c646572": 7978, "20636f6e6365726e696e67": 7979, "20706f6c6974696373": 7980, "20696d706c656d656e746564": 7981, "20656d657267696e67": 7982, "206361626c65": 7983, "20536561726368": 7984, "2077696e6e6572": 7985, "2054797065": 7986, "206d697374616b6573": 7987, "20666573746976616c": 7988, "20626f6c64": 7989, "20417369616e": 7990, "206f7074696d697a65": 7991, "544552": 7992, "20486176696e67": 7993, "206469736170706f696e74": 7994, "2070616365": 7995, "2073636f7065": 7996, "20686f6f6b": 7997, "206c697374696e67": 7998, "2063616c656e646172": 7999, "e2809c4974": 8000, "2062726f6b6572": 8001, "2053636f74": 8002, "204e656564": 8003, "3437": 8004, "69736d73": 8005, "2072616e": 8006, "2056696577": 8007, "2070726f74656374696e67": 8008, "2074656d706f72617279": 8009, "4643": 8010, "2062656572": 8011, "656d6564": 8012, "20656d6272616365": 8013, "c2b0": 8014, "2076696e65": 8015, "6f6361746564": 8016, "206c616e677561676573": 8017, "646f": 8018, "6f726961": 8019, "616c79736973": 8020, "6963696f7573": 8021, "207365656473": 8022, "746572696f72": 8023, "20696d706572": 8024, "20616374696e67": 8025, "205370616365": 8026, "2075706772616465": 8027, "20676170": 8028, "4641": 8029, "20626c696e64": 8030, "20766973697473": 8031, "2076697369746564": 8032, "2061706172746d656e74": 8033, "20746973737565": 8034, "2063686170746572": 8035, "204c696e": 8036, "204672616e6b": 8037, "2062617273": 8038, "72656e63696573": 8039, "6f70797269676874": 8040, "5450": 8041, "20426964656e": 8042, "2061776172646564": 8043, "6f756c": 8044, "20726571756573746564": 8045, "2065787472616f7264": 8046, "20646973706c": 8047, "20776f726b73686f70": 8048, "20656e68616e63696e67": 8049, "20696e697469616c6c79": 8050, "46696e64": 8051, "756c7473": 8052, "2064726167": 8053, "20616368696576696e67": 8054, "756f7573": 8055, "20436f6c6f7261646f": 8056, "626f726e": 8057, "65747279": 8058, "20636f6e747261637473": 8059, "20616666696c69617465": 8060, "20696e74656c6c65637475616c": 8061, "6861757374": 8062, "20657865726369736573": 8063, "206e657574": 8064, "20616464696374696f6e": 8065, "2d63656e74": 8066, "20506172746e657273": 8067, "206861726d66756c": 8068, "206e65676f7469": 8069, "204572": 8070, "206772616365": 8071, "72616379": 8072, "204275696c64696e67": 8073, "434c": 8074, "61696c696e67": 8075, "20726f77": 8076, "65676173": 8077, "656e6e6973": 8078, "207375726661636573": 8079, "2064697665": 8080, "20726566657273": 8081, "206e6f62": 8082, "20504446": 8083, "6f736974": 8084, "222e": 8085, "64657273": 8086, "205073796368": 8087, "6f7273686970": 8088, "20726570726573656e746174697665": 8089, "20696d706c656d656e74696e67": 8090, "20696e737469747574696f6e": 8091, "204f666669636572": 8092, "7374616c": 8093, "20506f696e74": 8094, "2057726974": 8095, "206964": 8096, "7679": 8097, "20636f6174": 8098, "207369676e6174757265": 8099, "2064656469636174696f6e": 8100, "61676f6e": 8101, "20436861726c": 8102, "756b65": 8103, "205348": 8104, "206368726f6e6963": 8105, "204a6f": 8106, "206f7665727365": 8107, "70686f6e6573": 8108, "206272696c6c": 8109, "206c617267656c79": 8110, "20636f6d6d6974746565": 8111, "6f766964": 8112, "2062757474": 8113, "69636b6574": 8114, "204d61796265": 8115, "20466172": 8116, "204275696c64": 8117, "536d": 8118, "2072656372756974": 8119, "20536561": 8120, "4e6f7465": 8121, "20436f6e63": 8122, "616b656e": 8123, "207472617665": 8124, "6f76656e": 8125, "6f6d6d756e": 8126, "2067656e65726174696f6e73": 8127, "206472616674": 8128, "68656d": 8129, "2072657475726e696e67": 8130, "20636f6d706c656d656e74": 8131, "20736f75676874": 8132, "2072656365697074": 8133, "206d7573636c6573": 8134, "2050726f6475637473": 8135, "72617065": 8136, "2062726f616463617374": 8137, "204272617a696c": 8138, "72616765": 8139, "616e6e6564": 8140, "2052657475726e": 8141, "20636f6e74726f6c6c6564": 8142, "206469726563746564": 8143, "205072696d65": 8144, "2070726f6d6f74696f6e73": 8145, "57656c636f6d65": 8146, "2053756368": 8147, "204341": 8148, "7468656c657373": 8149, "6c657273": 8150, "616c6f67": 8151, "20656c696d696e617465": 8152, "20706f6c6c7574": 8153, "69676174696e67": 8154, "776f": 8155, "206f72616c": 8156, "617a65": 8157, "72656d": 8158, "6c656570": 8159, "206a7572697364": 8160, "496e7374": 8161, "2044657370697465": 8162, "20636c6f73696e67": 8163, "5072": 8164, "204449": 8165, "204c6164": 8166, "2041646d696e697374726174696f6e": 8167, "d0b8": 8168, "5468656e": 8169, "20647574696573": 8170, "6572617465": 8171, "2076656e74757265": 8172, "206772616e746564": 8173, "75726974696573": 8174, "20707265706172696e67": 8175, "20496465": 8176, "2043617468": 8177, "206368656d6963616c73": 8178, "726f6c6c6572": 8179, "2074726967676572": 8180, "2f63": 8181, "206d696c64": 8182, "2041726561": 8183, "20666163696c6974617465": 8184, "6d6f6e79": 8185, "2067617264": 8186, "2063686f7365": 8187, "207265706c61636564": 8188, "207468656d6573": 8189, "20617373756d65": 8190, "206578636c7573": 8191, "54616b65": 8192, "20636f616368696e67": 8193, "20706c6561736564": 8194, "204d6963686967616e": 8195, "706174": 8196, "204350": 8197, "2061636b6e6f776c6564": 8198, "69617279": 8199, "6574657273": 8200, "2046616972": 8201, "20686172646572": 8202, "206865616473": 8203, "20736369656e7469737473": 8204, "536563": 8205, "69727473": 8206, "20696e766f6c76696e67": 8207, "2062616c616e636564": 8208, "204d7572": 8209, "20596574": 8210, "206175746f6d61746963": 8211, "206f696c73": 8212, "2050616c657374": 8213, "2069636f6e6963": 8214, "2066696e67": 8215, "206d6f766573": 8216, "204c69": 8217, "2050687973": 8218, "2064697363757373696f6e73": 8219, "6b696e73": 8220, "206170706c696573": 8221, "206e65776c79": 8222, "20766963746f7279": 8223, "20656d707479": 8224, "20636f6d62696e65": 8225, "206269726473": 8226, "20756e69766572736974696573": 8227, "4353": 8228, "20737475636b": 8229, "20476172": 8230, "20626f7973": 8231, "206665776572": 8232, "207769646572": 8233, "6173686564": 8234, "756d6572": 8235, "206365727469666963617465": 8236, "2d726573": 8237, "6d616e73": 8238, "756c66": 8239, "61746566756c": 8240, "6c696d69746564": 8241, "206d6572656c79": 8242, "20417269": 8243, "616469756d": 8244, "4d616e": 8245, "736973": 8246, "2048696d": 8247, "20637261636b": 8248, "20536d616c6c": 8249, "2073656374696f6e73": 8250, "207075626c69636174696f6e": 8251, "2074616c6b6564": 8252, "2053797374656d73": 8253, "2050726f666573736f72": 8254, "3436": 8255, "2066696c6c696e67": 8256, "2053746174": 8257, "20617474616368": 8258, "42656361757365": 8259, "2065676773": 8260, "2056697267696e6961": 8261, "20476972": 8262, "20456e67696e656572696e67": 8263, "6179696e67": 8264, "636861726765": 8265, "206d6178696d697a65": 8266, "2073756464656e6c79": 8267, "6976616c656e74": 8268, "2073686f6f74696e67": 8269, "426574": 8270, "206f6365616e": 8271, "2066696c6564": 8272, "2072657665616c": 8273, "20666c6f7572": 8274, "20736166656775": 8275, "2028e2809c": 8276, "697469": 8277, "6f75726564": 8278, "2054616c": 8279, "204558": 8280, "20676f7665726e6d656e7473": 8281, "20616c7465726e617469766573": 8282, "20756e70": 8283, "206472696e6b696e67": 8284, "20656e636f757261676564": 8285, "616e69656c": 8286, "20747261636b73": 8287, "207374727567676c696e67": 8288, "20766972": 8289, "206c696b6577697365": 8290, "415254": 8291, "20636f6d7065": 8292, "2d646570": 8293, "204167656e6379": 8294, "207068656e6f6d656e": 8295, "436f6c": 8296, "20546f6f6c": 8297, "d8a7": 8298, "6f6e6e61": 8299, "206465636b": 8300, "207265616374696f6e": 8301, "20636f6e76657273696f6e": 8302, "2072657363": 8303, "414e54": 8304, "20646566696e6974696f6e": 8305, "20616476657274697365": 8306, "2054686f6d6173": 8307, "466f6c6c6f77": 8308, "20507574": 8309, "204e6f76": 8310, "20726567756c6174696f6e": 8311, "69616e61": 8312, "20636f6f7065726174696f6e": 8313, "696e616e6365": 8314, "2073657276657273": 8315, "2073696e": 8316, "20686f6d656f776e657273": 8317, "766973696f6e": 8318, "2073686564": 8319, "20727572616c": 8320, "20756e7573": 8321, "2063617375616c": 8322, "204b696e67646f6d": 8323, "20756e64657273746f6f64": 8324, "2d45": 8325, "2047726f77": 8326, "20726573706f6e736573": 8327, "2063616d65726173": 8328, "20616c6c65676564": 8329, "20707572737565": 8330, "61776e": 8331, "6f756368": 8332, "313830": 8333, "20777261": 8334, "69616d73": 8335, "65616c616e64": 8336, "4d4c": 8337, "20596f756e67": 8338, "6a61": 8339, "2063617574": 8340, "6973646f6d": 8341, "20696e646f6f72": 8342, "20666f726d756c61": 8343, "6573746572646179": 8344, "204361726f6c696e61": 8345, "737473": 8346, "6f67656e": 8347, "2072656c696162696c697479": 8348, "747261": 8349, "6173686573": 8350, "697374656e74": 8351, "20427579": 8352, "20536176": 8353, "2047616c6c": 8354, "5468616e6b73": 8355, "20636f6e666964656e7469616c": 8356, "206661726d657273": 8357, "2074656c6570686f6e65": 8358, "756c7074": 8359, "207369676e69666963616e6365": 8360, "2063656c6562726174696f6e": 8361, "6c796d70": 8362, "204e6f7465": 8363, "20696e7669746564": 8364, "2d6279": 8365, "20657374696d617465": 8366, "617574686f72": 8367, "415445": 8368, "696b6564": 8369, "204c6576656c": 8370, "207374756479696e67": 8371, "2074726962": 8372, "207265736f6c7665": 8373, "205768696368": 8374, "2072656475636573": 8375, "20737566666572": 8376, "2064617368": 8377, "20676c6164": 8378, "2067617465": 8379, "204852": 8380, "20696e7374616e746c79": 8381, "204469736e6579": 8382, "20737572707269736564": 8383, "206c75636b79": 8384, "67656e6379": 8385, "2074756d": 8386, "657368": 8387, "204a757374696365": 8388, "20646973636f756e7473": 8389, "20656e7469746c6564": 8390, "20617761726473": 8391, "20666f756e646572": 8392, "2072656172": 8393, "20636f6e747269627574696f6e": 8394, "20636f6e74726163746f72": 8395, "20746f6d": 8396, "2068616e67": 8397, "204c6963": 8398, "20657874656e73696f6e": 8399, "207370656369616c69737473": 8400, "20466163": 8401, "206865726974616765": 8402, "2070726f66697473": 8403, "617a61": 8404, "2076657373656c": 8405, "20617474656e646564": 8406, "206f66666572696e6773": 8407, "476f": 8408, "e0b8": 8409, "204d50": 8410, "207375726765": 8411, "20636f6e6e656374696e67": 8412, "495459": 8413, "207375626a65637473": 8414, "6f6e6564": 8415, "2072656e6f776e6564": 8416, "204c6974746c65": 8417, "2065766572797768657265": 8418, "6a69": 8419, "207363616c": 8420, "207472616e736d697373696f6e": 8421, "206f7267616e69736174696f6e": 8422, "20626568617669": 8423, "20766572696679": 8424, "757261": 8425, "2073686164": 8426, "2068757274": 8427, "20636f756e7479": 8428, "20636865636b6f7574": 8429, "2073706c6974": 8430, "20737061726b": 8431, "726963746564": 8432, "206f626c69676174696f6e73": 8433, "2068656c": 8434, "20736563746f7273": 8435, "2061637175697265": 8436, "617373696f6e": 8437, "20696e737472756d656e7473": 8438, "204245": 8439, "20737472697665": 8440, "20626564726f6f6d": 8441, "2074686f726f7567686c79": 8442, "6c697665": 8443, "20736f7572": 8444, "2062617265": 8445, "6374757265": 8446, "206f626c": 8447, "2061646472657373696e67": 8448, "206d6f76656d656e7473": 8449, "207069746368": 8450, "2072657365727665": 8451, "20706572736f6e6e656c": 8452, "20656e74697479": 8453, "20496e746567": 8454, "20726f6f66696e67": 8455, "6d616c": 8456, "20536f75746865726e": 8457, "20726573706f6e736962696c6974696573": 8458, "204a6f686e736f6e": 8459, "207265706561746564": 8460, "206c69737473": 8461, "20637261667473": 8462, "20557064": 8463, "e282ac": 8464, "20636865636b73": 8465, "20436c696e": 8466, "756c756d": 8467, "20626c616e6b": 8468, "206578706f7274": 8469, "7572656175": 8470, "20444f": 8471, "20657175616c6c79": 8472, "207175616e74697479": 8473, "69616e6f": 8474, "206661636573": 8475, "6f676e6974697665": 8476, "20617574686f72697a6564": 8477, "6f6e6765": 8478, "2053656e696f72": 8479, "204d616465": 8480, "207072697a65": 8481, "206472696e6b73": 8482, "20636c61696d6564": 8483, "7269636b": 8484, "20676172616765": 8485, "726f67656e": 8486, "656d706c6f79": 8487, "204a6f62": 8488, "206e6577736c6574746572": 8489, "676c": 8490, "616d626572": 8491, "204f6d": 8492, "206d656469636174696f6e73": 8493, "20696e666c6174696f6e": 8494, "206173736f63696174696f6e": 8495, "2070726f6d6f74696f6e": 8496, "4775": 8497, "6f6368": 8498, "6f64696e67": 8499, "205a65616c616e64": 8500, "656c65": 8501, "20747562": 8502, "207075626c": 8503, "20736861706573": 8504, "5249": 8505, "61726174": 8506, "206f757473": 8507, "20636c69636b696e67": 8508, "61706f7265": 8509, "20776f726b666f726365": 8510, "206c696d69746174696f6e73": 8511, "20696e71756972": 8512, "2064696c": 8513, "2076697361": 8514, "20696e74656e74696f6e": 8515, "2074696d656c79": 8516, "786964": 8517, "206c61756768": 8518, "204c6962": 8519, "20496e7374616c6c": 8520, "776f726b73": 8521, "2074687265617473": 8522, "5243": 8523, "20437265617465": 8524, "6167656e": 8525, "2074616c6b73": 8526, "206964656e74696679696e67": 8527, "206c616e6473636170": 8528, "4c6561726e": 8529, "20626162": 8530, "20666f6c6c6f77657273": 8531, "204361706974616c": 8532, "204a6572736579": 8533, "7a6572": 8534, "20677569746172": 8535, "204d617274696e": 8536, "2066617363696e6174696e67": 8537, "437573746f6d": 8538, "20636f63": 8539, "2070696e6b": 8540, "75636c656172": 8541, "2066616c6c696e67": 8542, "2077697365": 8543, "204e61747572616c": 8544, "4c696b65": 8545, "207265736964656e6365": 8546, "20556e666f7274756e6174656c79": 8547, "20415049": 8548, "20636f6d70617269736f6e": 8549, "2074656d706c617465": 8550, "20707265676e616e6379": 8551, "6172656e6379": 8552, "756e61": 8553, "2073637265656e73": 8554, "20636f6d626174": 8555, "2072656c6967696f6e": 8556, "726174696f6e73": 8557, "20576569676874": 8558, "207065616b": 8559, "2074617267657473": 8560, "6865617374": 8561, "2065786861757374": 8562, "2046616374": 8563, "6674696e67": 8564, "20486f6e": 8565, "6f7973": 8566, "2065646974696e67": 8567, "20666c61766f7273": 8568, "20796f6761": 8569, "20657870656e7365": 8570, "206578706c6f": 8571, "20696e666c616d6d": 8572, "20536563726574617279": 8573, "204576656e74": 8574, "20e280a2": 8575, "20647261776e": 8576, "2072657370656374697665": 8577, "2074726164656d": 8578, "6874": 8579, "207375697473": 8580, "6963617265": 8581, "20626c6f636b73": 8582, "6f6c6563": 8583, "20c4": 8584, "20626f6e65": 8585, "20736f6d657768657265": 8586, "7365637572697479": 8587, "617274657273": 8588, "454354": 8589, "207374616b65686f6c64657273": 8590, "69706573": 8591, "2047656f72676961": 8592, "204443": 8593, "726976696e67": 8594, "204d65646963696e65": 8595, "206c6179657273": 8596, "20776174657273": 8597, "2046524545": 8598, "206f70706f73697465": 8599, "627269646765": 8600, "6f6372616379": 8601, "204265696e67": 8602, "20646967657374": 8603, "4841": 8604, "2048617264": 8605, "2072656c6174696e67": 8606, "20686f73746564": 8607, "20737472696e67": 8608, "2053747564696573": 8609, "20457374617465": 8610, "7265616c": 8611, "2065766f6c7574696f6e": 8612, "53696d": 8613, "6d6574": 8614, "206e6174696f6e73": 8615, "7573746572": 8616, "20636f6e7461696e6572": 8617, "20656c6567616e74": 8618, "20536b79": 8619, "204d696b65": 8620, "20506f6b": 8621, "206b657973": 8622, "2068617070696e657373": 8623, "2070617274696369706174696e67": 8624, "2073757270726973696e67": 8625, "2076696374696d73": 8626, "206261637465726961": 8627, "2066696e676572": 8628, "20436f6d6d6f6e": 8629, "2073656564": 8630, "204a696d": 8631, "204a756c": 8632, "20656d627261": 8633, "2050616369666963": 8634, "20414e59": 8635, "206465637265617365": 8636, "6261": 8637, "20647261696e": 8638, "20657363617065": 8639, "3431": 8640, "204865617274": 8641, "2066696e6473": 8642, "6f726d616c": 8643, "20686f74656c73": 8644, "20657863657373697665": 8645, "20546974": 8646, "2047616d": 8647, "20636f6e74657374": 8648, "2070737963686f6c6f676963616c": 8649, "68616e64": 8650, "657276696365": 8651, "206f63637572726564": 8652, "2065787472616f7264696e617279": 8653, "20616c697665": 8654, "207275": 8655, "20677569646573": 8656, "20646576656c6f706572": 8657, "206c6567616379": 8658, "2061636b6e6f776c65646765": 8659, "206669626572": 8660, "20616363756d": 8661, "2076756c6e657261626c65": 8662, "6a75": 8663, "6e73": 8664, "20756e6b6e6f776e": 8665, "2044656c6976657279": 8666, "20636f74746f6e": 8667, "206f7269656e74": 8668, "206e6577657374": 8669, "204368726973": 8670, "2062656e6368": 8671, "206d61696e7461696e6564": 8672, "436f6e74616374": 8673, "5250": 8674, "5544": 8675, "2063616e63656c": 8676, "2052616d": 8677, "2056616e": 8678, "207472696d": 8679, "20696e76697465": 8680, "207477656e7479": 8681, "2046696e616c6c79": 8682, "626172": 8683, "206578706572696d": 8684, "20626f776c": 8685, "707079": 8686, "2077617368696e67": 8687, "206c65766572": 8688, "20726573746f7265": 8689, "2063727970746f63757272656e6379": 8690, "207761726e696e67": 8691, "207365617473": 8692, "6c69616d656e74": 8693, "69736572": 8694, "6173746564": 8695, "2073686f756c646572": 8696, "20707265636973696f6e": 8697, "2072656d6f76696e67": 8698, "20417761726473": 8699, "205748": 8700, "20636f6e74656e7473": 8701, "2072656d61696e6564": 8702, "2070726576656e74696f6e": 8703, "204170": 8704, "20576865": 8705, "20636f6d706c6574696f6e": 8706, "696d70": 8707, "2045617379": 8708, "2064656c6976657273": 8709, "20696e7465727669657773": 8710, "6968": 8711, "20537570": 8712, "2070726f666573736f72": 8713, "20436162": 8714, "20486f6c79": 8715, "2054686f756768": 8716, "207065726365": 8717, "2d64726976656e": 8718, "206465627574": 8719, "206d696e696d697a65": 8720, "2070726f66696c6573": 8721, "204c696d69746564": 8722, "746963616c": 8723, "204c696e65": 8724, "72657473": 8725, "20686174": 8726, "204d657373": 8727, "20646966666963756c7479": 8728, "2070726f706f73616c": 8729, "2061646f70746564": 8730, "537065": 8731, "636d": 8732, "6c6c73": 8733, "756e69636970": 8734, "204b696d": 8735, "204972616e": 8736, "6c6c6564": 8737, "20456d62": 8738, "617661": 8739, "61746368696e67": 8740, "206f6276696f75736c79": 8741, "20766f6c756e7465657273": 8742, "3539": 8743, "20646576656c6f706d656e7473": 8744, "20436f6e666572656e6365": 8745, "20616573746865746963": 8746, "7461626c65": 8747, "2043617374": 8748, "204f6c796d70": 8749, "20636f6d707574657273": 8750, "20686f72697a": 8751, "206c6f76696e67": 8752, "204e616d65": 8753, "2056696c6c": 8754, "616c69": 8755, "e280b3": 8756, "20636f6e76657274": 8757, "205374616e64617264": 8758, "2043524d": 8759, "20657373656e7469616c6c79": 8760, "206578616d696e65": 8761, "206f7267616e69736174696f6e73": 8762, "20677574": 8763, "2073746174697374696373": 8764, "206172726976616c": 8765, "20636f6d70617469626c65": 8766, "736c65": 8767, "20746f7973": 8768, "206c6970": 8769, "2043697263": 8770, "207768696c7374": 8771, "20536f6e": 8772, "20776f726b666c6f77": 8773, "204e696765726961": 8774, "202e2e2e": 8775, "70726f6f66": 8776, "48696768": 8777, "5573": 8778, "616e636865": 8779, "2070686f6e6573": 8780, "20737065636966696564": 8781, "2064726f70706564": 8782, "333630": 8783, "686f7374": 8784, "6f726365": 8785, "2073746f726d": 8786, "206368696c64686f6f64": 8787, "20646566696e65": 8788, "c3a0": 8789, "20616c696b65": 8790, "204f6b": 8791, "206672657175656e74": 8792, "4541": 8793, "e0a5": 8794, "2067796d": 8795, "2074686f7573616e64": 8796, "2064697274": 8797, "204d6168": 8798, "2072616e67696e67": 8799, "204578616d": 8800, "2076656e7565": 8801, "206368657374": 8802, "20726570726573656e746174696f6e": 8803, "204d656574": 8804, "20456e73": 8805, "2d6f70": 8806, "206c696674": 8807, "204164766973": 8808, "20656c656374726f6e": 8809, "20506c6174666f726d": 8810, "20726f6d616e746963": 8811, "3433": 8812, "20737065616b6572": 8813, "206672657175656e6379": 8814, "656e657373": 8815, "20686f6c65": 8816, "206f62736572766564": 8817, "20696e636f72706f72617465": 8818, "20736d61727470686f6e65": 8819, "504c": 8820, "696c61726c79": 8821, "2053656374696f6e": 8822, "20686561727473": 8823, "6f7272656374": 8824, "20416e67": 8825, "20434e": 8826, "204e756d626572": 8827, "204a656e6e": 8828, "20636f6e74726163746f7273": 8829, "2070756c6c6564": 8830, "2052656e": 8831, "2066696e657374": 8832, "313930": 8833, "20417368": 8834, "20737562736964": 8835, "20626f756e646172696573": 8836, "206d6163": 8837, "206469736f72646572": 8838, "2070726f666f756e64": 8839, "70616e79": 8840, "20547269": 8841, "20726f6f7473": 8842, "207377696d6d696e67": 8843, "20636f6e76656e74696f6e616c": 8844, "204472697665": 8845, "20647973": 8846, "20776f726b73686f7073": 8847, "504d": 8848, "2055524c": 8849, "756c74616e65": 8850, "206672616e6368": 8851, "46696e616c6c79": 8852, "2d6f72": 8853, "207265637265": 8854, "206163636f6d6d6f64617465": 8855, "206861636b": 8856, "20636c6f636b": 8857, "206571756976616c656e74": 8858, "696b69": 8859, "204661726d": 8860, "205572": 8861, "207265736f6e": 8862, "204b6f6e67": 8863, "2056656e": 8864, "2d747261": 8865, "206f70657261746f7273": 8866, "204368616e6765": 8867, "207472697073": 8868, "e280992e": 8869, "20456d6572": 8870, "206d6167617a696e65": 8871, "2061646f7074696f6e": 8872, "626f6f6b73": 8873, "6f75736573": 8874, "207265736964": 8875, "206469736f7264657273": 8876, "6c76": 8877, "207265736f7274": 8878, "20756e6465726c79696e67": 8879, "206578706c6f726174696f6e": 8880, "2077617665": 8881, "616e7768696c65": 8882, "20656e746875736961737473": 8883, "6d697468": 8884, "20636c617373726f6f6d": 8885, "20616464726573736564": 8886, "20436f6e74696e": 8887, "207375627374616e6365": 8888, "50656f706c65": 8889, "4d6179": 8890, "50617274": 8891, "616e696e67": 8892, "2073746f6f64": 8893, "656172696e67": 8894, "20656e646c657373": 8895, "726574696f6e": 8896, "20737472696b65": 8897, "207374726169676874666f7277617264": 8898, "726570": 8899, "2061756469656e636573": 8900, "2070726976696c65": 8901, "616368656c6f72": 8902, "206c6f6f7365": 8903, "20726f7365": 8904, "20646973636f76657279": 8905, "20696e6a75726564": 8906, "61746865726564": 8907, "20636f6f6b6965": 8908, "6d616e73686970": 8909, "6f73746f6e": 8910, "20706f756e6473": 8911, "20726964696e67": 8912, "7269626c65": 8913, "207369676e696e67": 8914, "204d696e6973747279": 8915, "2073686f7763617365": 8916, "6f746564": 8917, "204d6174657269616c": 8918, "20457468": 8919, "616e6e656c": 8920, "206e6569676862": 8921, "206578706c616e": 8922, "20537061696e": 8923, "206c61796f7574": 8924, "20657870616e646564": 8925, "2073616d706c6573": 8926, "204368616d70696f6e73": 8927, "20456d61696c": 8928, "207363656e6573": 8929, "2070726f6c": 8930, "20796f757273": 8931, "20e0a4": 8932, "2d6465": 8933, "2073616372": 8934, "c3bc": 8935, "20546572": 8936, "206576657279626f6479": 8937, "206465636c696e65": 8938, "206c6f636b73": 8939, "206a75696365": 8940, "62757279": 8941, "20637963": 8942, "206c6965": 8943, "6f74696373": 8944, "206c6567656e64": 8945, "20736d6f6b65": 8946, "204a6f6e": 8947, "7465656e": 8948, "20646164": 8949, "6f6c6964": 8950, "206b696c": 8951, "20616d656e": 8952, "20737570706c656d656e7473": 8953, "20677261746566756c": 8954, "2063686572": 8955, "2068617465": 8956, "417574": 8957, "7374617465": 8958, "2053616e7461": 8959, "2050656e": 8960, "656c6c79": 8961, "204f53": 8962, "20696d7072657373696f6e": 8963, "2061737369676e6564": 8964, "707269736573": 8965, "20726570757461626c65": 8966, "2046756e": 8967, "20756e6c6f636b": 8968, "20636f6d70657469746f7273": 8969, "2070726576656e74696e67": 8970, "206f6b6179": 8971, "6963696465": 8972, "656c6c696e67": 8973, "206e75747269656e7473": 8974, "2f64": 8975, "6f75727365": 8976, "2063756c746976": 8977, "c3b6": 8978, "20706f636b6574": 8979, "617374657273": 8980, "6176656e": 8981, "20646562617465": 8982, "20666163746f7279": 8983, "20555342": 8984, "2067726174": 8985, "207574696c697479": 8986, "20667572": 8987, "616c6f": 8988, "616d6963": 8989, "20706f7374696e67": 8990, "2077616c6b6564": 8991, "206c65676974696d617465": 8992, "20416374696f6e": 8993, "204e6f72746865726e": 8994, "6976657273617279": 8995, "20737065616b657273": 8996, "4249": 8997, "205075": 8998, "207477697374": 8999, "2067656e65746963": 9000, "205175657374696f6e73": 9001, "20706974": 9002, "697361": 9003, "6f756e646564": 9004, "20657373656e6365": 9005, "20416761696e": 9006, "726170657574": 9007, "2d6b": 9008, "616e6573": 9009, "2044616d": 9010, "726f67": 9011, "20696e7475": 9012, "2063617272696572": 9013, "207374726f6e676c79": 9014, "206c6f67696e": 9015, "2057696c6c69616d73": 9016, "206163717569726564": 9017, "2042656e6566697473": 9018, "2076616363696e65": 9019, "206162726f6164": 9020, "20746563686e6f6c6f676963616c": 9021, "20706572666f726d616e636573": 9022, "20646f6c6c6172": 9023, "72656374696f6e": 9024, "616c6c6173": 9025, "20736f6d6577686174": 9026, "2d706572736f6e": 9027, "20636f6c6c656374697665": 9028, "2073757276697665": 9029, "20617267756d656e74": 9030, "696e6172": 9031, "2048656e": 9032, "2054656368": 9033, "696c697070": 9034, "20657870616e64696e67": 9035, "2053696e6761706f7265": 9036, "6174656c6c": 9037, "204844": 9038, "204553": 9039, "20737472616e6765": 9040, "20666c6f776572": 9041, "206f63636173696f6e73": 9042, "2061707065616c696e67": 9043, "636b6574": 9044, "6967656e6f7573": 9045, "2063757473": 9046, "2061666665637473": 9047, "6f7267656f7573": 9048, "206772616d": 9049, "20526f7365": 9050, "2074657374696d": 9051, "2d6d616465": 9052, "20636f6f6c696e67": 9053, "20666f73746572": 9054, "61636b6564": 9055, "207265616c6d": 9056, "204c6565": 9057, "455245": 9058, "205573657273": 9059, "20617474656e64696e67": 9060, "e28094616e64": 9061, "4669": 9062, "676963616c": 9063, "20746f6c6572": 9064, "206f7074696d697a6174696f6e": 9065, "d984": 9066, "204353": 9067, "207374726f": 9068, "2070726563696f7573": 9069, "417274": 9070, "2061726f6d": 9071, "75746572": 9072, "495448": 9073, "206f75676874": 9074, "313931": 9075, "20506572666f726d616e6365": 9076, "2068656176696c79": 9077, "20646961676e6f736973": 9078, "20594f5552": 9079, "204578706c6f7265": 9080, "6f7274696f6e": 9081, "2065646974": 9082, "207175616c696679": 9083, "2050616b697374616e": 9084, "2d6f6e65": 9085, "6174696e": 9086, "7574656e": 9087, "20636f6c6f757273": 9088, "206a756e": 9089, "2056696574": 9090, "204c6174696e": 9091, "20736f6d65626f6479": 9092, "2064697374696e6775": 9093, "206372617a79": 9094, "20646966666963756c74696573": 9095, "6772616465": 9096, "207265666c65637473": 9097, "204a656666": 9098, "20636572656d6f6e79": 9099, "626f77": 9100, "756174696f6e": 9101, "206c616964": 9102, "206465616c6572": 9103, "206c6164696573": 9104, "20736f7068697374696361746564": 9105, "207365676d656e74": 9106, "2070757473": 9107, "2065786869626974696f6e": 9108, "204b6f726561": 9109, "69746973": 9110, "75727365": 9111, "20694f53": 9112, "2070686f746f677261706873": 9113, "72697465": 9114, "204d656d626572": 9115, "2d636f6e74": 9116, "2d706572": 9117, "206c656e73": 9118, "5374617274": 9119, "20696e7370697265": 9120, "66616c6c": 9121, "5468726f756768": 9122, "66657273": 9123, "20746f72": 9124, "20616476697365": 9125, "207061636b6564": 9126, "20416972706f7274": 9127, "206c69746572616c6c79": 9128, "2076657274": 9129, "6f726e657973": 9130, "204a6f6e6573": 9131, "206e6172726174697665": 9132, "2070756c": 9133, "20616c6c657267": 9134, "20456e6a6f79": 9135, "20486f6e67": 9136, "20616d656e64": 9137, "20666c6f6f7273": 9138, "69727475616c": 9139, "206f7264696e617279": 9140, "20667275697473": 9141, "696173": 9142, "6d6f6e64": 9143, "20506f70": 9144, "20467269656e64": 9145, "6f6369616c": 9146, "20454e": 9147, "65766572616c": 9148, "205461626c65": 9149, "6f6e6176": 9150, "205261": 9151, "2076696577696e67": 9152, "206465736b746f70": 9153, "2064657369676e696e67": 9154, "2061696d6564": 9155, "61796d656e74": 9156, "6572656e": 9157, "207365616d6c6573736c79": 9158, "206c656769736c": 9159, "204d6963": 9160, "20507562": 9161, "20736561736f6e73": 9162, "617773": 9163, "206f70656e73": 9164, "2064656665": 9165, "20706f7274616c": 9166, "44657370697465": 9167, "436172": 9168, "6f6d79": 9169, "20676c6f62": 9170, "20726570726573656e746564": 9171, "75756d": 9172, "696c6572": 9173, "2043686174": 9174, "20746872697665": 9175, "2064616e676572": 9176, "206c697465726174757265": 9177, "61696e65": 9178, "e2809d29": 9179, "2066616c6c73": 9180, "206d656368616e69736d": 9181, "206769616e74": 9182, "73656c6c": 9183, "20737570706c696572": 9184, "75636b79": 9185, "207669727475616c6c79": 9186, "204d75736c696d": 9187, "20776972656c657373": 9188, "7a6564": 9189, "20627265616b73": 9190, "207365636f6e64617279": 9191, "2074616c656e746564": 9192, "71756973": 9193, "2072696365": 9194, "206c65766572616765": 9195, "6768616e": 9196, "616d70696f6e": 9197, "20726163696e67": 9198, "20636f6d706c6574696e67": 9199, "204475626169": 9200, "206f6273746163": 9201, "2047617264656e": 9202, "20696e64696361746564": 9203, "207072696d65": 9204, "2070726f6d696e656e74": 9205, "464f52": 9206, "20656e6465": 9207, "20676f6c64656e": 9208, "206f76657273": 9209, "206c617779657273": 9210, "2079617264": 9211, "20736574746c656d656e74": 9212, "20656d6f74696f6e": 9213, "206f70706f6e": 9214, "2057696c6c69616d": 9215, "207469726564": 9216, "2077616e74696e67": 9217, "637269626564": 9218, "2068617276657374": 9219, "6162696c": 9220, "726f6c6f67": 9221, "6461": 9222, "727573": 9223, "6f74697665": 9224, "6c6978": 9225, "20696d706f7274616e746c79": 9226, "2d6d696e": 9227, "496e63": 9228, "4344": 9229, "69666f726d": 9230, "206f76657276696577": 9231, "207769746864726177616c": 9232, "207472616e73706172656e74": 9233, "206163717569736974696f6e": 9234, "2d57": 9235, "697a6174696f6e73": 9236, "20776561706f6e73": 9237, "2072616d": 9238, "4c6f6f6b696e67": 9239, "204c61626f72": 9240, "207065726d6974746564": 9241, "20666c6f": 9242, "20626f61726473": 9243, "204265617574": 9244, "2053776564": 9245, "206d697374616b65": 9246, "204672616e636973636f": 9247, "206c6f79616c7479": 9248, "206b6579776f726473": 9249, "20636f6e6669726d6174696f6e": 9250, "787967656e": 9251, "20776973646f6d": 9252, "20696e636c7573697665": 9253, "205665676173": 9254, "206163636f6d70616e": 9255, "206f7665727768656c6d696e67": 9256, "206e656974686572": 9257, "20636f6d70616374": 9258, "726963756c756d": 9259, "204d616e7566616374": 9260, "5369676e": 9261, "205053": 9262, "6f7363": 9263, "4a6f696e": 9264, "20656c65": 9265, "20636861726d": 9266, "756773": 9267, "207068696c6f736f706879": 9268, "706f727473": 9269, "72696368": 9270, "79617264": 9271, "697a61626c65": 9272, "2070726f766973696f6e73": 9273, "20696e737472756374696f6e": 9274, "20636f75706c6573": 9275, "65746865": 9276, "20637573746f6d697a65": 9277, "69656e": 9278, "69616c6c79": 9279, "2070726f64756374697665": 9280, "20436174686f6c6963": 9281, "204147": 9282, "204e69676874": 9283, "66756c6e657373": 9284, "4578706572": 9285, "6964697479": 9286, "2073746f636b73": 9287, "206d656d6f7261626c65": 9288, "656761": 9289, "2073796d626f6c73": 9290, "20626573": 9291, "2044616e": 9292, "20766974616d696e": 9293, "3732": 9294, "77616e": 9295, "206c61736572": 9296, "206169726372616674": 9297, "2052696368617264": 9298, "204f68696f": 9299, "6f646765": 9300, "20776f726e": 9301, "204964656e74": 9302, "76616c73": 9303, "2064697669646564": 9304, "546f70": 9305, "6d6c": 9306, "2074696c6c": 9307, "2073746174696f6e73": 9308, "206561726e696e6773": 9309, "2064657365727665": 9310, "20666c6f6f72696e67": 9311, "20e282ac": 9312, "20636c756273": 9313, "204d41": 9314, "2061737375726564": 9315, "20676174686572696e67": 9316, "2065636f": 9317, "2073747564696564": 9318, "206469737472696275746564": 9319, "204f776e": 9320, "206163636573736962696c697479": 9321, "2077696e73": 9322, "206c696b6564": 9323, "20636f6e73756c74696e67": 9324, "6f6972": 9325, "77696e": 9326, "20636f6e766579": 9327, "2064656c657465": 9328, "6f73746572": 9329, "20666c617368": 9330, "2041726d79": 9331, "206c6170746f70": 9332, "206164657175617465": 9333, "20746f696c65": 9334, "20686f6e6579": 9335, "20657869737473": 9336, "206d696e6473": 9337, "20726570726573656e74617469766573": 9338, "20616c756d696e": 9339, "20686173736c65": 9340, "207363756c7074": 9341, "20617274776f726b": 9342, "66756e6374696f6e": 9343, "6974617269616e": 9344, "204461696c79": 9345, "206576696c": 9346, "20686f73706974616c73": 9347, "2062617474": 9348, "2042656c6c": 9349, "207265736964656e74": 9350, "2072656c6174696f6e": 9351, "2072616973696e67": 9352, "20696e74656772617465": 9353, "4c53": 9354, "206d697874757265": 9355, "6963697479": 9356, "2073656573": 9357, "206964656e74696669636174696f6e": 9358, "616e6e61": 9359, "6e6461": 9360, "20616e6f6e796d": 9361, "6f6c6f6769737473": 9362, "4d72": 9363, "3738": 9364, "20436f6c6c656374696f6e": 9365, "206c616e64696e67": 9366, "2072656c61786174696f6e": 9367, "6f6e617669727573": 9368, "4547": 9369, "20636f6e7461696e696e67": 9370, "2063726166746564": 9371, "20436f766964": 9372, "2076696e74616765": 9373, "756e746572": 9374, "20776572656e": 9375, "7765726564": 9376, "207375666665726564": 9377, "53747564": 9378, "2074617065": 9379, "20776f6f64656e": 9380, "4e65": 9381, "6361": 9382, "206172746973746963": 9383, "20656e67696e65657273": 9384, "20686f70696e67": 9385, "6e6563657373617279": 9386, "20526567756c6172": 9387, "20756e757375616c": 9388, "68797468": 9389, "3038": 9390, "2068616d": 9391, "6365656473": 9392, "20447565": 9393, "2063756c7475726573": 9394, "20476f6c64656e": 9395, "206163636f6d6d6f646174696f6e": 9396, "6f6e7468": 9397, "20447265616d": 9398, "61646f72": 9399, "69666572": 9400, "656d61696c": 9401, "206163636964656e7473": 9402, "206174746974756465": 9403, "2053696d706c79": 9404, "293b": 9405, "50616c": 9406, "206861736e": 9407, "204a756e": 9408, "2070726f74657374": 9409, "2070726f6d69736573": 9410, "20436f6c756d62": 9411, "20707261796572": 9412, "20666f72756d": 9413, "20426f73746f6e": 9414, "756e6e": 9415, "75646573": 9416, "206c69676874776569676874": 9417, "20636f6e747269627574696e67": 9418, "20436c65616e696e67": 9419, "20616e796d6f7265": 9420, "20706f77657273": 9421, "72616e": 9422, "20456d70": 9423, "2070726163746974696f6e": 9424, "20706164": 9425, "6c796e": 9426, "6f6c766573": 9427,
[...]
